<unk>	0
<s>	0
</s>	0
▁der	-3.51913
▁die	-3.54685
▁und	-4.03967
n	-4.04311
▁in	-4.06895
en	-4.22846
s	-4.3979
▁ist	-4.42443
▁das	-4.55662
▁er	-4.60473
▁den	-4.79099
▁von	-4.82204
e	-4.84632
▁zu	-4.90426
▁sie	-4.94908
▁im	-4.97802
▁des	-4.99728
▁ein	-5.02359
▁eine	-5.02452
▁es	-5.05327
▁	-5.06117
▁auf	-5.07611
▁mit	-5.07945
▁sich	-5.09065
▁auch	-5.13692
▁als	-5.15449
▁für	-5.19992
▁nicht	-5.23262
▁wurde	-5.23642
▁war	-5.27555
▁an	-5.31316
er	-5.33349
▁dem	-5.34702
▁sind	-5.4203
▁werden	-5.4304
▁nach	-5.52398
▁ich	-5.52547
▁wir	-5.52637
▁wird	-5.58262
▁aus	-5.60969
▁diese	-5.82001
r	-5.85142
▁bei	-5.92274
▁seine	-6.00204
▁hat	-6.0495
▁sein	-6.09219
▁dieser	-6.10054
▁einer	-6.11823
▁durch	-6.12924
▁zum	-6.14846
▁dass	-6.16925
▁vor	-6.17644
▁noch	-6.20093
▁so	-6.24351
▁einen	-6.26555
▁zur	-6.29025
▁nur	-6.2928
m	-6.30379
t	-6.32872
▁haben	-6.3394
▁aber	-6.3398
▁über	-6.35761
▁um	-6.36535
▁wie	-6.37508
▁wurden	-6.37978
▁am	-6.39271
▁einem	-6.44166
▁kann	-6.47361
▁man	-6.47974
▁zwei	-6.50995
es	-6.51398
▁unter	-6.51802
▁ihre	-6.52117
▁oder	-6.53829
▁heute	-6.56816
▁jedoch	-6.58093
▁hier	-6.60453
▁seiner	-6.66079
▁gibt	-6.67537
▁zeit	-6.69456
▁sehr	-6.74778
▁dies	-6.75998
▁ab	-6.78737
▁bis	-6.79145
▁diesem	-6.7923
▁können	-6.80964
▁später	-6.8507
▁keine	-6.87096
▁drei	-6.8821
▁ihr	-6.88327
▁alle	-6.89281
▁mehr	-6.90367
▁müssen	-6.90553
▁liegt	-6.91246
▁dabei	-6.92001
▁waren	-6.92121
▁wieder	-6.92275
▁muss	-6.92636
▁dort	-6.98181
▁dieses	-6.99364
▁uns	-7.02073
▁stadt	-7.03466
▁hatte	-7.03487
▁was	-7.07733
▁europäische	-7.10609
▁damit	-7.1147
vom	-7.12896
▁einige	-7.15943
▁möchte	-7.17932
▁teil	-7.18899
a	-7.19333
ung	-7.20725
▁dann	-7.20837
▁viele	-7.22158
▁ersten	-7.22912
▁gegen	-7.23136
in	-7.25067
▁ihm	-7.25969
▁jahr	-7.2809
▁eines	-7.28134
▁kommission	-7.30539
halb	-7.30962
▁wenn	-7.32248
▁immer	-7.32252
▁mehrere	-7.32997
▁selbst	-7.34348
▁außerdem	-7.34799
▁zwischen	-7.34908
▁da	-7.34912
▁herr	-7.35495
▁befindet	-7.36015
▁vier	-7.36276
▁weitere	-7.36922
▁diesen	-7.37073
▁seinen	-7.37496
▁bereits	-7.38997
▁während	-7.39948
▁bekannt	-7.41261
▁schon	-7.41932
dem	-7.43722
▁allerdings	-7.4625
▁konnte	-7.4705
▁daher	-7.47325
▁erste	-7.48068
▁jahre	-7.48531
▁ihrer	-7.4951
▁dazu	-7.49877
▁habe	-7.50075
▁ihn	-7.50186
▁sollte	-7.50223
o	-7.51836
▁europa	-7.51925
▁bericht	-7.53667
▁ort	-7.55235
▁beiden	-7.56279
lich	-7.56349
▁danach	-7.56901
▁gemeinde	-7.57124
▁anderen	-7.57786
▁zahlreiche	-7.58377
▁doch	-7.58562
▁zunächst	-7.59484
▁beim	-7.59668
▁gilt	-7.59691
▁andere	-7.59707
▁zweiten	-7.60149
▁frau	-7.60322
y	-7.61023
▁ver	-7.61175
▁nun	-7.62337
▁zurück	-7.62401
▁verschiedene	-7.63401
▁ebenfalls	-7.64253
▁neben	-7.64337
d	-7.64359
▁allem	-7.64919
▁unsere	-7.65107
▁viel	-7.6554
te	-7.65682
▁jahren	-7.6597
▁mich	-7.66648
▁gehört	-7.66739
▁kinder	-7.67662
▁geht	-7.6831
▁sowie	-7.69275
▁ihnen	-7.69401
▁weiter	-7.6951
▁gab	-7.71794
▁studierte	-7.72248
▁jetzt	-7.73086
▁steht	-7.73436
▁frage	-7.74007
▁also	-7.74457
▁kam	-7.75189
▁deutschen	-7.75201
▁be	-7.75477
▁fünf	-7.75799
▁wo	-7.76169
▁etwas	-7.76325
▁sohn	-7.77013
▁ohne	-7.77559
▁du	-7.77565
▁ber	-7.78582
▁zusammen	-7.78708
▁seit	-7.79411
▁parlament	-7.80067
▁neue	-7.80228
▁mal	-7.80316
▁ganz	-7.80386
▁besteht	-7.80569
▁große	-7.80845
▁statt	-7.80872
▁kein	-7.8139
▁ende	-7.81945
▁gut	-7.82096
▁dafür	-7.8224
▁mir	-7.82243
▁beide	-7.83987
▁soll	-7.84251
▁arbeit	-7.84612
▁menschen	-7.85587
▁namen	-7.85592
▁deutschland	-7.86425
▁sollten	-7.86742
▁film	-7.86783
▁leben	-7.8698
▁möglich	-7.87862
▁mitglied	-7.90283
i	-7.90543
▁land	-7.90588
▁union	-7.91471
k	-7.91498
▁welt	-7.91527
de	-7.92046
▁meine	-7.9214
l	-7.92524
▁darüber	-7.92715
▁erhalten	-7.92755
▁oft	-7.93646
▁darauf	-7.94498
▁bedeutung	-7.94663
▁kommt	-7.9535
▁familie	-7.95382
▁grund	-7.95639
em	-7.95784
z	-7.95904
▁lassen	-7.96028
▁meist	-7.96203
h	-7.96386
▁verheiratet	-7.96735
▁arbeitete	-7.96851
▁anschließend	-7.9715
▁erhielt	-7.98297
▁national	-7.99421
▁berlin	-7.99669
▁ob	-8.00294
den	-8.00449
▁politische	-8.00602
ischen	-8.01202
▁recht	-8.01238
▁kurz	-8.013
▁besonders	-8.01355
us	-8.01794
▁tätig	-8.01872
▁de	-8.01913
▁neuen	-8.02215
▁ja	-8.02602
▁erst	-8.02894
▁kirche	-8.03415
▁universität	-8.0352
▁art	-8.03573
▁blieb	-8.03718
▁welche	-8.03859
▁finden	-8.04191
▁verwendet	-8.05336
▁begann	-8.05521
▁vater	-8.05869
▁neu	-8.06638
▁rat	-8.06935
▁wasser	-8.07276
▁benannt	-8.08032
▁worden	-8.08482
▁unternehmen	-8.09075
▁solche	-8.09085
▁sechs	-8.09432
▁lebt	-8.10374
▁bereich	-8.11196
▁vielen	-8.11698
▁stehen	-8.1246
▁bin	-8.1282
▁platz	-8.12941
ten	-8.14709
▁spielte	-8.15143
▁ging	-8.15618
▁weiteren	-8.15869
▁kommen	-8.15975
▁musik	-8.16404
▁of	-8.1642
b	-8.16443
▁fall	-8.16524
▁findet	-8.1657
▁dadurch	-8.16665
▁rolle	-8.16794
▁bau	-8.17503
st	-8.17634
▁weiterhin	-8.17671
▁stark	-8.19021
▁entwicklung	-8.1931
▁häufig	-8.19448
▁natürlich	-8.19516
▁großen	-8.19687
▁bezeichnet	-8.20074
▁geschichte	-8.20075
mann	-8.20084
▁machen	-8.20194
▁name	-8.20364
▁wichtig	-8.20405
▁wäre	-8.20414
▁etwa	-8.20547
▁band	-8.20757
el	-8.2078
▁gebiet	-8.21097
▁davon	-8.21795
▁allen	-8.22062
▁anderem	-8.22136
▁weltkrieg	-8.22546
▁gehörte	-8.22694
▁insbesondere	-8.22987
▁unterschiedlich	-8.2339
▁tun	-8.24551
▁führte	-8.24579
▁ziel	-8.24805
▁folgende	-8.251
▁sei	-8.25655
▁hinaus	-8.25965
ing	-8.26352
▁einmal	-8.26538
wohl	-8.26693
▁meisten	-8.26714
al	-8.26841
▁wegen	-8.2713
▁haupt	-8.27143
mit	-8.27163
▁problem	-8.27168
▁thema	-8.27209
▁landwirtschaft	-8.27232
▁je	-8.27663
▁weg	-8.28246
um	-8.28502
ig	-8.28601
sten	-8.28768
▁sehen	-8.29269
▁form	-8.29925
grund	-8.30037
▁einfach	-8.30211
▁lange	-8.30722
▁wollen	-8.32479
▁ihrem	-8.32733
▁genannt	-8.32855
▁nahm	-8.33112
▁fast	-8.33543
▁deutsche	-8.33773
▁eigene	-8.34054
▁würde	-8.34137
▁schließlich	-8.34469
▁fragen	-8.34502
▁haus	-8.34685
▁wenig	-8.34808
▁präsident	-8.34926
▁letzten	-8.35019
▁dessen	-8.35207
der	-8.35308
▁sitz	-8.35728
▁trat	-8.35892
▁nichts	-8.35964
▁alles	-8.36104
▁punkt	-8.36214
▁wichtige	-8.36239
▁titel	-8.36685
▁spiel	-8.36808
be	-8.36951
berg	-8.37013
g	-8.37414
▁größte	-8.37864
▁beispiel	-8.37889
▁sagen	-8.38651
▁kleine	-8.38669
▁krieg	-8.38986
▁daneben	-8.39486
▁herrn	-8.39575
▁handelt	-8.39609
ge	-8.39672
▁weiß	-8.39869
▁führt	-8.39997
sch	-8.40159
isch	-8.40183
▁befinden	-8.40288
▁frauen	-8.40308
▁arbeiten	-8.40544
▁schloss	-8.40573
▁darf	-8.41401
▁nie	-8.41458
▁will	-8.4149
▁rechts	-8.41509
▁bitte	-8.41512
▁ge	-8.41522
▁gleichzeitig	-8.42198
▁wort	-8.42225
▁un	-8.42456
le	-8.4249
▁zweite	-8.42583
▁eingesetzt	-8.42847
▁gebäude	-8.42867
▁landes	-8.42967
▁stand	-8.43022
▁internationale	-8.43043
▁genutzt	-8.43081
▁sondern	-8.43568
▁mitgliedstaaten	-8.43621
▁acht	-8.43687
▁tochter	-8.43692
▁dar	-8.43739
▁inner	-8.43816
▁gewann	-8.44175
▁jeder	-8.44178
▁mittel	-8.44257
p	-8.4451
▁gemeinsam	-8.44622
▁burg	-8.44777
▁s	-8.44838
▁stellen	-8.44988
▁geben	-8.46227
▁einigen	-8.46367
▁gegenüber	-8.46683
▁macht	-8.46926
▁liegen	-8.47146
▁wissen	-8.47162
▁sieben	-8.47197
▁bürger	-8.47387
▁keinen	-8.47626
▁zehn	-8.47731
▁daraufhin	-8.48205
▁erfolg	-8.48636
▁ehemalige	-8.48924
▁ursprünglich	-8.49017
▁hin	-8.49065
▁wirklich	-8.49199
land	-8.4943
▁mutter	-8.50298
▁wuchs	-8.50477
f	-8.5058
▁direkt	-8.5087
▁seines	-8.51298
▁lang	-8.51396
▁politik	-8.51428
▁hoch	-8.51521
▁deutlich	-8.51524
▁stellt	-8.5166
▁eigenen	-8.52117
▁einsatz	-8.5217
▁brauchen	-8.52541
▁teilweise	-8.526
▁the	-8.52921
▁damals	-8.52941
▁probleme	-8.53097
▁a	-8.53605
▁begriff	-8.53656
keit	-8.53728
▁musste	-8.53985
▁lässt	-8.54042
▁regierung	-8.54132
▁see	-8.54315
▁besuchte	-8.54469
▁ausbildung	-8.54807
▁hatten	-8.54841
▁schnell	-8.54995
liche	-8.55038
▁seitdem	-8.55067
▁groß	-8.55541
▁genau	-8.55614
haus	-8.55639
▁wer	-8.55875
▁bisher	-8.5608
erweise	-8.56201
▁new	-8.56326
▁dorf	-8.56782
▁partei	-8.57614
is	-8.58564
▁gleichen	-8.58655
▁besondere	-8.588
▁einzige	-8.59005
▁geboren	-8.59177
an	-8.59199
ische	-8.59255
▁tod	-8.59304
▁k	-8.59728
▁frei	-8.59731
et	-8.59791
▁früh	-8.60089
▁spielen	-8.60414
▁bildet	-8.60568
▁insgesamt	-8.60608
▁gesellschaft	-8.6137
▁alten	-8.61396
▁tag	-8.61906
▁zeigt	-8.61919
▁ebenso	-8.61982
▁region	-8.62
▁werk	-8.62062
▁vorschlag	-8.62191
▁weit	-8.63185
▁früher	-8.63291
▁werke	-8.63393
lichen	-8.63457
▁dank	-8.63776
▁fand	-8.63919
▁spielt	-8.6407
▁pro	-8.64093
on	-8.64258
▁gerade	-8.64379
▁schrieb	-8.64587
▁gehen	-8.65355
▁bald	-8.65743
▁wenige	-8.65874
▁bedeutet	-8.65897
▁dennoch	-8.66
▁maßnahmen	-8.66006
▁karriere	-8.6634
▁bestehen	-8.66514
▁unterstützung	-8.66749
▁berg	-8.66886
▁natur	-8.66961
▁sprache	-8.67101
▁werde	-8.67309
▁größere	-8.67453
▁erster	-8.67523
▁münchen	-8.67718
▁gruppe	-8.67745
▁ober	-8.67913
▁folge	-8.67948
▁wissenschaft	-8.68417
▁starb	-8.68676
▁gleich	-8.68756
▁zusammenarbeit	-8.68829
schaft	-8.69081
▁schule	-8.69112
▁b	-8.69117
▁richtung	-8.69273
▁all	-8.69274
▁hauptsächlich	-8.69335
▁bruder	-8.69338
▁situation	-8.69425
▁theater	-8.6948
iert	-8.69535
▁erfolgreich	-8.69616
▁verein	-8.70021
▁gemeinsame	-8.70228
▁unserer	-8.70313
▁erfolgt	-8.70315
▁gehören	-8.7079
▁meiner	-8.70839
▁hinter	-8.70871
ch	-8.71226
▁machte	-8.71574
▁konnten	-8.71723
▁könnte	-8.71899
▁kommissar	-8.72052
▁stammt	-8.72074
▁ehe	-8.7208
▁gute	-8.72144
▁buch	-8.72225
▁kunst	-8.72688
▁insel	-8.72774
ton	-8.7305
▁erreicht	-8.73378
▁bevölkerung	-8.73416
▁leicht	-8.73485
▁vertrag	-8.73499
▁verbunden	-8.74017
▁zog	-8.74288
▁erneut	-8.74824
▁schwer	-8.75008
▁hohe	-8.75014
bach	-8.75277
ä	-8.75278
▁gemacht	-8.75288
▁letzte	-8.75355
▁weniger	-8.75598
▁raum	-8.75834
▁glaube	-8.75907
▁stelle	-8.75925
▁lage	-8.75955
▁weise	-8.76121
▁la	-8.7613
▁führen	-8.7677
▁jugend	-8.76773
▁weil	-8.77115
▁sollen	-8.77209
▁dürfen	-8.773
▁saison	-8.77769
▁sogar	-8.77777
▁unterstützen	-8.78065
▁wohl	-8.78358
▁kreis	-8.78386
▁arten	-8.78708
▁antwort	-8.78821
▁ließ	-8.78883
▁zukunft	-8.78927
▁geld	-8.78945
▁jeweil	-8.79161
▁verfahren	-8.79169
u	-8.79183
▁zusätzlich	-8.79193
▁aller	-8.79224
▁folgten	-8.79233
▁amt	-8.7937
▁gewählt	-8.79434
▁bleibt	-8.79608
▁her	-8.79842
▁meinung	-8.79854
▁daran	-8.79873
▁staaten	-8.80009
▁gesagt	-8.80104
▁kaum	-8.80108
▁selten	-8.80287
▁teile	-8.803
▁international	-8.80305
▁reihe	-8.80601
▁historische	-8.81079
straße	-8.81389
▁mein	-8.81435
▁l	-8.81524
▁kultur	-8.81654
▁jede	-8.81804
ter	-8.81895
▁nächsten	-8.82184
▁übernahm	-8.82199
▁fort	-8.82244
▁klar	-8.82467
▁heißt	-8.82477
re	-8.82504
▁nord	-8.82742
▁selb	-8.82763
▁entstanden	-8.82786
▁länder	-8.82949
▁fest	-8.82979
▁folgen	-8.83015
▁kleinen	-8.83181
▁ledig	-8.8319
▁arbeitet	-8.83226
▁sprechen	-8.83323
▁erreichen	-8.83365
her	-8.83479
▁mitglieder	-8.83709
ie	-8.83943
ver	-8.83951
▁seite	-8.84167
▁vorhanden	-8.84213
au	-8.84384
ia	-8.84486
▁sch	-8.84559
▁markt	-8.84702
▁warum	-8.84832
▁danke	-8.84894
bau	-8.8509
schule	-8.85131
na	-8.85172
▁re	-8.85239
▁bleiben	-8.85311
▁besitzt	-8.85549
ler	-8.85694
▁frankreich	-8.8595
▁derzeit	-8.86009
▁paris	-8.86122
▁dagegen	-8.86161
stein	-8.86168
▁wahl	-8.86339
▁hoffe	-8.86451
▁eigentlich	-8.86633
▁völlig	-8.8666
▁politisch	-8.86802
▁norden	-8.86886
burg	-8.86889
▁regel	-8.86905
▁bestand	-8.87038
man	-8.87144
▁aktiv	-8.87195
zwischen	-8.8723
▁öffentliche	-8.87244
▁klein	-8.8782
▁eher	-8.88049
▁lebte	-8.88074
w	-8.88106
▁geprägt	-8.8844
▁gesamte	-8.88447
to	-8.88465
▁lag	-8.88516
▁entstand	-8.88524
▁lösung	-8.88603
▁wald	-8.88677
▁gar	-8.88713
▁straße	-8.88893
▁literatur	-8.89047
▁alter	-8.89048
▁provinz	-8.8908
▁mannschaft	-8.89557
▁hohen	-8.8973
▁zusammenhang	-8.89738
▁hilfe	-8.90013
▁galt	-8.90114
▁punkte	-8.90292
▁fraktion	-8.90312
▁heutigen	-8.90411
▁halten	-8.90569
at	-8.9059
da	-8.90599
▁kloster	-8.90643
ka	-8.90894
▁nehmen	-8.90946
ke	-8.91232
▁entscheidung	-8.91526
▁west	-8.91665
▁wollte	-8.91714
▁einzelnen	-8.91757
▁vielleicht	-8.91835
▁leider	-8.9193
▁hand	-8.91997
tal	-8.9203
▁bahnhof	-8.92063
▁university	-8.92368
▁ausschließlich	-8.92683
▁fluss	-8.9277
▁relativ	-8.92904
▁kilometer	-8.9291
ungen	-8.92918
▁besser	-8.92953
▁personen	-8.93011
▁nördlich	-8.93181
▁kopf	-8.93231
▁südlich	-8.93232
▁heraus	-8.93286
▁größten	-8.93313
▁spieler	-8.93377
▁betrifft	-8.93443
▁mehrfach	-8.93466
▁zuvor	-8.93613
▁kamen	-8.93619
▁absolvierte	-8.93638
▁trotz	-8.93676
▁beispielsweise	-8.93727
▁alt	-8.93829
▁großer	-8.93954
▁britische	-8.94427
▁system	-8.94526
▁aufgabe	-8.94574
▁schutz	-8.9468
▁notwendig	-8.94899
▁trägt	-8.9513
▁themen	-8.95377
▁stimme	-8.95399
c	-8.95421
▁hätte	-8.9552
▁album	-8.95588
▁energie	-8.95606
▁älteste	-8.9564
▁zentrum	-8.95645
▁folgte	-8.95692
▁neun	-8.95846
▁zeitpunkt	-8.96225
▁darum	-8.9624
▁regelmäßig	-8.96429
▁c	-8.96449
▁aufgenommen	-8.96492
▁überwiegend	-8.96602
▁süden	-8.96629
▁armee	-8.96631
▁boden	-8.96862
▁dient	-8.96875
▁holz	-8.969
▁friedrich	-8.96958
▁eltern	-8.97011
▁rahmen	-8.97132
ieren	-8.97248
▁errichtet	-8.9725
▁text	-8.97337
ar	-8.9736
▁gewesen	-8.97581
▁stil	-8.97611
▁hauptstadt	-8.97667
heim	-8.97774
gruppe	-8.97812
▁kollegen	-8.97862
▁nachfolger	-8.98824
stadt	-8.98851
zeit	-8.98859
▁nähe	-8.98861
▁unterstützt	-8.99447
▁sport	-8.99576
▁darin	-8.99708
▁erfolgte	-8.99811
▁unser	-9.00273
▁studium	-9.00283
▁straßen	-9.00632
▁vollständig	-9.00634
or	-9.00725
chen	-9.00831
▁daten	-9.00853
▁interesse	-9.01018
▁bilden	-9.0102
▁gelang	-9.01046
▁gegeben	-9.01102
▁veröffentlicht	-9.013
▁setzte	-9.01444
▁liga	-9.0174
▁künstler	-9.01925
ta	-9.02161
mannschaft	-9.02195
▁druck	-9.02226
▁museum	-9.02247
▁abstimmung	-9.02404
▁enthalten	-9.02528
▁wirtschafts	-9.02564
▁denke	-9.0277
▁hierbei	-9.02846
▁york	-9.02875
▁verwaltungs	-9.02899
▁london	-9.03067
▁italien	-9.03224
▁sicherheit	-9.03309
▁stein	-9.03317
▁projekt	-9.03319
▁wahrscheinlich	-9.03386
▁kampf	-9.03436
▁paar	-9.03446
▁sterreich	-9.03671
▁süd	-9.03696
▁rund	-9.03818
▁karl	-9.03834
▁setzt	-9.03836
os	-9.04052
▁gestellt	-9.04066
▁tiere	-9.04071
wissenschaften	-9.04257
▁richtig	-9.04556
▁wechselte	-9.04677
▁voll	-9.04851
▁gefunden	-9.05194
▁manche	-9.05223
▁zugleich	-9.05291
▁liste	-9.05432
▁g	-9.05507
▁wirtschaftliche	-9.05998
▁dritten	-9.06183
ck	-9.06249
▁stets	-9.06392
▁betrieb	-9.06437
▁schweiz	-9.06479
▁nderungsanträge	-9.06699
▁hamburg	-9.06715
▁osten	-9.06806
▁seiten	-9.06885
▁erreichte	-9.07008
feld	-9.0724
▁entsprechend	-9.0724
▁gruppen	-9.07468
▁wien	-9.07499
▁entwickelte	-9.07559
▁jeden	-9.07683
▁möglichkeit	-9.07809
▁friedhof	-9.07818
▁richtlinie	-9.07852
ra	-9.07977
▁hans	-9.08012
▁ländern	-9.08064
▁kosten	-9.08397
▁körper	-9.08489
▁bezeichnung	-9.08512
▁ernst	-9.08731
▁französischen	-9.08827
▁bietet	-9.08899
▁tragen	-9.08946
▁gemeinden	-9.08995
▁sicher	-9.09231
▁park	-9.09238
▁bild	-9.0932
▁besten	-9.09371
▁entwickelt	-9.09494
▁beginn	-9.09552
▁alte	-9.0973
▁enthält	-9.09829
▁lebens	-9.09902
▁industrie	-9.10022
▁allein	-9.1035
▁preis	-9.1035
▁zuletzt	-9.10467
▁gründung	-9.10536
▁schwarz	-9.10909
▁befand	-9.10926
▁grenze	-9.11015
▁gleichnamige	-9.11109
▁sieht	-9.11128
ation	-9.11143
▁ganze	-9.11194
▁verbreitet	-9.11213
ste	-9.11216
▁nimmt	-9.11244
▁kind	-9.11254
▁funktion	-9.11497
▁verantwortung	-9.11504
▁tatsächlich	-9.11511
▁ebene	-9.11522
▁strecke	-9.11617
▁tor	-9.11729
▁hof	-9.11913
▁programm	-9.12061
▁entschließung	-9.12413
▁diente	-9.1242
▁europas	-9.12577
la	-9.12642
▁mann	-9.12775
▁umfasst	-9.13003
▁schul	-9.13052
▁verläuft	-9.13064
▁zählt	-9.13081
▁luft	-9.13157
▁ausgezeichnet	-9.13263
▁gründen	-9.13324
▁reich	-9.13468
zahl	-9.13565
▁schritt	-9.13623
ro	-9.13703
ierung	-9.13722
▁gebaut	-9.13732
▁jedes	-9.13756
▁umwelt	-9.13782
▁wirtschaft	-9.13955
▁verfügt	-9.13998
▁p	-9.14093
▁johann	-9.14169
▁herrschaft	-9.14234
it	-9.1431
▁anders	-9.14338
▁erstmals	-9.14438
▁betrieben	-9.1444
▁john	-9.14694
▁debatte	-9.14993
▁könig	-9.1502
▁ergebnis	-9.15051
▁verbindung	-9.15121
▁zwölf	-9.15226
bar	-9.15478
los	-9.15487
ur	-9.15634
▁o	-9.15642
▁weltweit	-9.15717
▁hinsicht	-9.15726
▁parlaments	-9.15812
▁position	-9.16272
▁trotzdem	-9.16474
▁familien	-9.16792
▁no	-9.16862
▁mittlerweile	-9.17081
▁weitgehend	-9.1714
▁vertreten	-9.1718
▁moderne	-9.17194
▁serie	-9.17228
▁geworden	-9.17433
▁hingegen	-9.17442
▁nahe	-9.17774
▁gelten	-9.17777
▁rot	-9.17785
se	-9.17834
▁bücher	-9.17865
▁offen	-9.18209
▁wappen	-9.18338
▁nieder	-9.18685
zu	-9.18692
▁zahl	-9.18711
▁erforderlich	-9.18793
▁unmittelbar	-9.18862
▁westen	-9.19042
▁tal	-9.19121
▁tage	-9.19136
▁junge	-9.19157
▁sommer	-9.19219
▁wert	-9.19399
▁team	-9.19445
▁verfügung	-9.19503
▁spricht	-9.19562
▁schauspieler	-9.19582
▁licht	-9.1986
▁hinzu	-9.19873
▁beteiligt	-9.20168
▁technische	-9.2017
▁einfluss	-9.2019
▁zwar	-9.20207
▁wichtiger	-9.20239
ma	-9.20318
▁besitz	-9.2032
▁kleiner	-9.2037
il	-9.2048
ismus	-9.20549
▁lehrer	-9.20594
▁stimmen	-9.2068
▁los	-9.20876
▁ent	-9.20905
▁schwerpunkt	-9.21051
▁russland	-9.21136
▁tätigkeit	-9.21181
ger	-9.21227
▁forschung	-9.2127
▁kirchen	-9.21372
▁zeigen	-9.21437
▁bundes	-9.21461
▁wesentlich	-9.21482
▁kurze	-9.21551
▁äußerst	-9.21627
▁v	-9.21739
▁al	-9.21891
▁ar	-9.21965
▁durchgeführt	-9.21996
▁medien	-9.22133
▁dinge	-9.22161
dessen	-9.22239
▁meister	-9.22428
▁stellte	-9.22486
▁jahres	-9.22588
▁zerstört	-9.22634
▁geführt	-9.22739
▁danken	-9.2274
▁hervor	-9.22802
▁handeln	-9.22879
▁ferner	-9.2294
▁verwaltung	-9.23049
▁gelegentlich	-9.23069
▁sogenannte	-9.2307
weg	-9.2307
▁wochen	-9.2311
son	-9.23392
▁san	-9.23403
▁umgebung	-9.23457
▁di	-9.23556
bereich	-9.23676
schen	-9.24041
▁general	-9.24076
▁le	-9.24091
▁aussprache	-9.24127
gen	-9.24211
▁zweimal	-9.24232
▁vermutlich	-9.24531
▁entsprechende	-9.24541
▁vorschläge	-9.24663
▁anfang	-9.24711
▁außen	-9.24738
▁wettbewerb	-9.25067
ei	-9.2507
▁abschluss	-9.25119
▁blüten	-9.25189
▁per	-9.25234
▁darunter	-9.25274
x	-9.25298
ab	-9.25534
▁wichtigsten	-9.2558
▁verloren	-9.25643
▁dritte	-9.25715
▁zentrale	-9.26313
▁neuer	-9.26391
see	-9.26403
▁opfer	-9.26548
▁county	-9.26669
▁england	-9.2668
▁manchmal	-9.26766
▁namens	-9.2677
▁heinrich	-9.26782
▁augen	-9.26815
system	-9.26819
igen	-9.26898
▁bestimmt	-9.26933
▁aufgaben	-9.2703
▁rechte	-9.27192
▁klasse	-9.27276
▁stadtteil	-9.27428
▁kindern	-9.27571
▁kennen	-9.27982
▁schaffen	-9.28097
▁sprachen	-9.28104
raum	-9.28217
▁sprach	-9.28281
zug	-9.28455
▁anderer	-9.28464
▁heutige	-9.28488
▁halte	-9.28539
▁nächste	-9.28579
platz	-9.28677
▁peter	-9.28688
▁studien	-9.28703
innen	-9.28779
▁köln	-9.28952
▁paul	-9.28962
▁wilhelm	-9.29044
▁morgen	-9.29509
▁prozess	-9.2968
▁verwendung	-9.29759
▁flug	-9.29876
▁fanden	-9.29942
ow	-9.30037
▁autor	-9.30132
▁sache	-9.30134
veröffentlichung	-9.30214
▁demokratie	-9.30214
▁gestimmt	-9.30216
▁grab	-9.30386
▁schüler	-9.3052
▁angeboten	-9.30522
v	-9.30522
bahn	-9.3064
▁weiterer	-9.30706
▁wirkte	-9.30726
▁söhne	-9.30789
▁reicht	-9.30816
▁nutzen	-9.30822
▁zunehmend	-9.30901
▁winter	-9.31017
▁verantwortlich	-9.31038
▁geschlossen	-9.31044
▁überhaupt	-9.31065
▁fällt	-9.3111
▁öffentlich	-9.31269
▁städte	-9.31526
go	-9.31587
spiel	-9.31606
▁informationen	-9.31694
▁versucht	-9.31728
▁produktion	-9.31882
▁jüdische	-9.32062
▁würden	-9.32108
▁daraus	-9.32197
▁deutsch	-9.32276
▁tat	-9.32365
▁erwähnt	-9.32382
▁beginnt	-9.32404
▁ergebnisse	-9.32546
▁eindeutig	-9.3257
▁englisch	-9.32848
heit	-9.32851
▁katholische	-9.32931
▁vertreter	-9.33051
▁jungen	-9.33099
▁finanzielle	-9.33124
▁linie	-9.33145
ität	-9.33176
▁anlage	-9.33186
▁polizei	-9.33235
▁existiert	-9.33311
▁rom	-9.33381
▁behandelt	-9.33383
▁gleiche	-9.33406
▁kleinere	-9.3341
▁außerhalb	-9.33447
▁ansicht	-9.33646
▁august	-9.33663
selben	-9.33665
politik	-9.33985
▁rang	-9.34146
▁veröffentlichte	-9.342
gebiet	-9.34261
▁fach	-9.34277
▁dienst	-9.34424
▁laut	-9.34484
▁na	-9.34701
▁monate	-9.34859
▁berliner	-9.34868
ier	-9.34999
▁östlich	-9.35003
▁gold	-9.35022
▁charakter	-9.35175
▁verlor	-9.3518
▁roman	-9.35236
▁professor	-9.35254
▁college	-9.35416
▁ko	-9.35517
▁kehrte	-9.35548
▁t	-9.35647
▁gemeinschaft	-9.35715
▁sozial	-9.35715
▁maria	-9.35748
sweise	-9.35822
▁ka	-9.35962
dorf	-9.36027
▁he	-9.36161
▁dargestellt	-9.36245
▁gesprochen	-9.36276
gesellschaft	-9.36483
ü	-9.36677
▁bislang	-9.36707
▁fußball	-9.36801
ert	-9.36812
▁philosophie	-9.3683
ic	-9.36831
▁volks	-9.36871
▁vereinigte	-9.36889
▁handel	-9.36923
▁bedeutende	-9.36985
▁stammen	-9.36998
▁militär	-9.3703
▁brachte	-9.37057
▁verbraucher	-9.37058
▁laufe	-9.37115
▁erfolge	-9.37137
▁tritt	-9.37216
▁gesehen	-9.37553
▁ausschuss	-9.37602
▁bundesliga	-9.37677
▁gesamten	-9.37741
▁kaiser	-9.37778
▁fällen	-9.37789
ley	-9.37867
▁genommen	-9.37951
▁rein	-9.38115
▁französische	-9.3812
▁d	-9.38197
▁turm	-9.38209
▁leipzig	-9.38339
▁deswegen	-9.38347
co	-9.38473
▁stammte	-9.38493
▁treffen	-9.38512
▁außer	-9.38623
▁heimat	-9.38655
▁jedem	-9.38835
▁euro	-9.38926
▁zentral	-9.39074
▁bad	-9.3918
▁umstritten	-9.39182
recht	-9.39447
▁beigesetzt	-9.39609
▁damalige	-9.39609
▁schriftsteller	-9.39635
▁blieben	-9.39744
geschichte	-9.39792
berichterstatter	-9.3984
▁gerne	-9.40018
▁bildung	-9.4005
▁angenommen	-9.4007
▁staat	-9.40126
▁ihres	-9.40194
▁grundlage	-9.40457
ach	-9.40585
▁ha	-9.40629
▁erweiterung	-9.40716
▁el	-9.40845
▁einwohner	-9.40889
▁hierfür	-9.40902
▁scheint	-9.40957
▁china	-9.41025
▁römische	-9.41374
▁minister	-9.41451
ß	-9.41717
▁jeweilige	-9.41722
▁meines	-9.41801
▁basis	-9.41842
▁bar	-9.41845
▁bahn	-9.41931
▁h	-9.41954
▁landkreis	-9.41959
▁kreuz	-9.42031
form	-9.42105
▁georg	-9.42119
▁guten	-9.42184
▁eisenbahn	-9.42235
di	-9.4227
▁martin	-9.42277
ul	-9.42435
▁erschien	-9.42514
wissenschaftlich	-9.42515
▁vergleich	-9.42557
werk	-9.42872
▁könnten	-9.43248
ige	-9.43304
▁verkehrs	-9.43321
▁anwendung	-9.43349
▁niemand	-9.43359
▁mittelalter	-9.43368
▁anzahl	-9.43392
▁thomas	-9.43588
▁bedarf	-9.43641
▁schiff	-9.43659
▁dienen	-9.43859
ba	-9.43906
▁gebracht	-9.44082
▁kern	-9.44227
▁zahlen	-9.44262
▁modell	-9.44316
▁forschungs	-9.44349
▁entfernt	-9.44357
▁türkei	-9.44434
▁männer	-9.44533
rat	-9.44663
▁klassische	-9.44897
▁olympische	-9.44977
▁ausdruck	-9.451
▁spiele	-9.45141
wiegend	-9.45161
▁ost	-9.4518
▁existieren	-9.45234
▁verbrachte	-9.45337
▁bahnstrecke	-9.45367
▁eng	-9.45488
▁positiv	-9.45572
ko	-9.45641
▁unseren	-9.45643
▁gelände	-9.45672
▁wiener	-9.45782
▁meinen	-9.4579
▁miteinander	-9.45792
▁mitte	-9.45814
▁gingen	-9.46164
▁ziele	-9.46209
▁entspricht	-9.4625
▁unternehmens	-9.46266
▁herren	-9.46271
▁stück	-9.46509
kirche	-9.46518
▁gehalten	-9.46604
▁bestimmte	-9.46679
tor	-9.46727
▁hält	-9.46763
▁westlich	-9.46819
ce	-9.46866
▁lernte	-9.46989
as	-9.47059
▁franz	-9.47167
▁handels	-9.47172
▁van	-9.47207
▁tourismus	-9.47245
▁produziert	-9.47266
▁trainer	-9.47284
▁anschluss	-9.47313
▁benutzt	-9.47327
▁ansatz	-9.47504
▁verlassen	-9.47638
▁flughafen	-9.47848
▁wein	-9.47877
▁pflanzen	-9.47884
▁kriegs	-9.47952
bi	-9.48121
▁mussten	-9.48154
▁angesehen	-9.48203
▁bevor	-9.48555
▁übernommen	-9.48563
▁zugang	-9.48601
▁regeln	-9.4863
▁ludwig	-9.48707
li	-9.4874
▁artikel	-9.48766
▁zuerst	-9.48828
ca	-9.48829
▁bringen	-9.48878
wissenschaft	-9.48886
▁schweden	-9.49039
▁beziehung	-9.49101
▁beendete	-9.49153
▁militärische	-9.49157
▁sinne	-9.49159
▁elf	-9.49164
▁diverse	-9.49198
▁bereit	-9.49208
▁einzelne	-9.49374
▁geplant	-9.49512
▁fließt	-9.49535
▁bo	-9.49576
▁siehe	-9.4971
▁unbekannt	-9.49791
▁aufmerksamkeit	-9.49994
▁erachten	-9.50035
▁beitrag	-9.50077
▁hergestellt	-9.50097
▁gipfel	-9.50099
▁länger	-9.50187
ze	-9.50193
id	-9.50229
▁organisation	-9.50253
▁zug	-9.50302
▁diskussion	-9.50428
▁nationale	-9.50433
▁vereins	-9.50451
▁österreichische	-9.50612
▁dir	-9.50766
▁hielt	-9.50936
▁weist	-9.50947
▁republik	-9.50955
▁gegensatz	-9.50976
▁schwester	-9.51006
do	-9.51119
▁folgt	-9.51185
▁steuer	-9.51204
ja	-9.51304
▁truppen	-9.51396
▁grenzen	-9.51487
▁töchter	-9.51558
un	-9.51579
hl	-9.5162
▁rück	-9.51645
▁polen	-9.51674
▁sofort	-9.51688
▁einzel	-9.51817
▁schwierig	-9.51873
▁geschehen	-9.51933
▁nein	-9.51966
▁wichtigste	-9.52037
▁feld	-9.52356
▁michael	-9.52393
▁mehrheit	-9.52405
▁lied	-9.52506
▁me	-9.52527
und	-9.52606
tz	-9.5265
industrie	-9.52715
▁schulen	-9.5274
▁arbeits	-9.52773
▁gebildet	-9.52983
art	-9.53255
▁frankfurt	-9.53368
▁braucht	-9.53396
ber	-9.53437
▁konzept	-9.53498
▁höhere	-9.53555
▁abgeordneten	-9.53569
▁fernseh	-9.53663
▁city	-9.53857
▁staats	-9.53903
▁gespielt	-9.53903
▁vorher	-9.53937
▁erkennen	-9.53946
▁ma	-9.54008
▁sicht	-9.54096
▁beschrieben	-9.54144
▁erscheint	-9.54349
▁genug	-9.54349
▁allgemeinen	-9.54397
▁soziale	-9.54414
▁hören	-9.54425
▁starke	-9.54521
bel	-9.54561
▁chor	-9.54581
schutz	-9.54726
▁w	-9.54838
ö	-9.54848
▁internet	-9.54881
▁halb	-9.54924
▁r	-9.54938
▁ziehen	-9.55035
▁go	-9.55106
▁entstehen	-9.55117
▁se	-9.55153
no	-9.55215
▁po	-9.55221
▁höchste	-9.55318
▁deutscher	-9.55424
▁bewohner	-9.55456
▁wesentlichen	-9.55481
▁verhandlungen	-9.55486
▁fiel	-9.55754
▁grenzt	-9.55762
▁klavier	-9.55791
▁kritik	-9.55794
▁gewinnen	-9.55808
▁nämlich	-9.55848
▁ähnlich	-9.55849
▁getan	-9.55916
▁wenigen	-9.55999
▁hierzu	-9.56044
▁mai	-9.56101
▁reform	-9.56105
th	-9.56193
▁heiligen	-9.56279
▁amerikanischen	-9.56349
▁stieg	-9.56479
▁teilen	-9.56569
▁zeitschrift	-9.566
▁angaben	-9.56659
▁ortes	-9.56764
▁eingehen	-9.56772
▁keiner	-9.56777
▁liebe	-9.56827
▁weltkrieges	-9.56964
lage	-9.57019
stand	-9.57031
he	-9.57038
sa	-9.57133
▁post	-9.57331
▁gewalt	-9.57348
▁mittlere	-9.57373
▁ehren	-9.57497
▁otto	-9.57501
▁vorsitzender	-9.57614
▁zuständig	-9.5765
▁beste	-9.57724
▁eis	-9.57843
▁wann	-9.57907
▁mitarbeiter	-9.57953
▁firma	-9.57964
▁zeitweise	-9.57973
▁erfolgen	-9.58032
ien	-9.58128
▁besitzen	-9.5818
fern	-9.5824
ik	-9.58264
▁gegründet	-9.58344
▁geb	-9.58367
meister	-9.58371
▁zugänglich	-9.58399
▁weder	-9.58414
▁möglichkeiten	-9.58426
ina	-9.58483
▁weltkriegs	-9.58485
▁interessen	-9.58562
ende	-9.58566
▁finanz	-9.58573
ist	-9.58589
▁englischen	-9.58618
am	-9.58658
▁abend	-9.58753
▁siedlung	-9.58972
▁co	-9.59005
▁regional	-9.59029
ius	-9.5904
sche	-9.5911
▁weiteres	-9.59171
▁farbe	-9.5921
▁gas	-9.59295
▁bezirk	-9.59428
▁normal	-9.59436
▁erinnert	-9.59438
▁herkunft	-9.59468
▁seien	-9.59521
▁trug	-9.59555
▁tour	-9.59595
▁verfasste	-9.59703
▁schluss	-9.59721
nach	-9.59792
ri	-9.59802
verwaltung	-9.59837
▁gründe	-9.59839
▁stuttgart	-9.59974
▁auto	-9.60041
ion	-9.60214
▁rennen	-9.60345
ling	-9.60347
▁verband	-9.60424
▁fernsehen	-9.60523
▁lautet	-9.60526
▁fehler	-9.60629
▁reise	-9.60634
hilfe	-9.60695
▁demokratische	-9.607
▁ernannt	-9.60731
ant	-9.60777
▁gesamt	-9.60915
▁elemente	-9.60926
▁carl	-9.60991
▁geschaffen	-9.61022
▁amtszeit	-9.61041
▁helfen	-9.61084
▁mo	-9.61339
▁plan	-9.61444
▁grundsätzlich	-9.61457
▁fehlt	-9.61609
▁beziehungen	-9.6161
▁praxis	-9.61646
▁bekommen	-9.61675
▁vorgesehen	-9.61677
▁gymnasium	-9.61775
▁bilder	-9.61895
▁robert	-9.61948
bei	-9.61994
▁herausforderung	-9.62085
▁gefärbt	-9.62085
▁kriegsende	-9.62093
▁übrigen	-9.62156
▁schlacht	-9.62189
▁allgemein	-9.62189
▁eingestellt	-9.62271
▁endlich	-9.62334
▁z	-9.62412
▁bekannte	-9.62482
▁verändert	-9.62551
▁ersetzt	-9.62677
▁bank	-9.62778
▁angelegenheit	-9.62797
▁verfassung	-9.6285
▁derartige	-9.62867
cht	-9.6289
preis	-9.63016
▁diskutiert	-9.63162
▁gott	-9.63171
▁angesprochen	-9.63199
▁ne	-9.63288
ti	-9.63309
▁hochschule	-9.63321
▁bildete	-9.63324
▁wagen	-9.63366
▁falsch	-9.6338
▁glauben	-9.63401
ker	-9.63448
▁start	-9.6346
▁veränderungen	-9.63771
▁dom	-9.63776
▁reichs	-9.63875
▁kontrolle	-9.63896
va	-9.63912
▁größe	-9.6392
▁widmete	-9.63926
▁ro	-9.64096
ben	-9.64117
▁grün	-9.64145
▁beruf	-9.64245
▁schreiben	-9.64252
folge	-9.64261
▁ton	-9.64333
▁prinzip	-9.64381
▁erklärung	-9.64458
▁erschienen	-9.64465
▁jährlich	-9.64551
▁freien	-9.64677
▁gericht	-9.64683
▁woche	-9.64749
arbeit	-9.64774
▁soldaten	-9.648
▁geschieht	-9.64802
▁mehrmals	-9.64802
▁gewonnen	-9.64814
▁bezug	-9.64863
hof	-9.64876
▁ganzen	-9.64893
▁parallel	-9.64968
▁laufbahn	-9.64993
▁rates	-9.65026
▁krieges	-9.65108
▁fortschritte	-9.65189
▁oben	-9.65252
▁mag	-9.65269
▁river	-9.65403
▁wesentliche	-9.6543
▁zweck	-9.65632
▁japan	-9.657
▁klima	-9.65839
▁fahrzeuge	-9.65847
▁gründete	-9.65851
▁rand	-9.65894
▁zeichen	-9.659
▁eigen	-9.65919
▁kontakt	-9.65973
mer	-9.65991
arbeiten	-9.66156
universität	-9.66227
▁waffen	-9.66271
zen	-9.66424
▁mar	-9.66429
hin	-9.66448
▁rhein	-9.66469
licher	-9.66477
▁abgeschlossen	-9.66488
▁umsetzung	-9.66534
▁spät	-9.66539
▁treten	-9.66556
▁sieg	-9.66588
▁to	-9.66627
▁ortsteil	-9.66731
▁neues	-9.66778
▁ähnliche	-9.66791
▁fa	-9.66791
▁sonst	-9.66813
▁besetzt	-9.66828
▁setzen	-9.66882
▁abschließend	-9.669
▁anfangs	-9.66927
▁vorgehen	-9.671
▁langsam	-9.67242
▁verließ	-9.67254
▁gefahr	-9.6731
▁größer	-9.67332
sport	-9.67332
▁gern	-9.67339
▁formen	-9.67354
▁qualität	-9.67357
▁versuchen	-9.67367
pp	-9.67371
ff	-9.67386
▁schwere	-9.67611
▁bedeutendste	-9.67888
▁pi	-9.67953
▁zurzeit	-9.67964
▁quellen	-9.68062
▁entstammte	-9.68117
▁gezeigt	-9.68163
ho	-9.68193
ol	-9.68342
▁bayern	-9.68416
del	-9.68442
▁johannes	-9.68481
▁königs	-9.68543
▁betrachtet	-9.68578
▁ri	-9.68644
▁produkte	-9.68724
▁i	-9.68761
▁kraft	-9.68837
ki	-9.68884
▁akademie	-9.68895
stellung	-9.6892
▁erscheinen	-9.68927
▁verstehen	-9.68977
unternehmen	-9.69123
▁christian	-9.69127
▁wirkung	-9.69133
▁zweiter	-9.69145
▁freie	-9.69153
▁französisch	-9.69216
io	-9.69233
ine	-9.69394
▁sinn	-9.69489
▁lebensjahr	-9.6949
▁hätten	-9.69529
▁strategie	-9.69545
ek	-9.69571
▁unabhängig	-9.69583
▁kapelle	-9.69586
▁sonder	-9.69607
▁medizin	-9.6961
▁gegenwärtig	-9.69628
▁verkauft	-9.69652
▁millionen	-9.69726
ierte	-9.69772
▁lu	-9.69815
mindest	-9.69825
▁letzter	-9.69844
▁menschliche	-9.69859
▁ausgestattet	-9.69887
▁knapp	-9.69889
▁besiedelt	-9.69904
▁rede	-9.69916
gemeinschaft	-9.69961
▁kanton	-9.69972
▁max	-9.70026
▁stärker	-9.70038
▁kompromiss	-9.70049
technik	-9.70116
▁antrag	-9.70118
▁persönlich	-9.70123
▁bekam	-9.70164
programm	-9.70207
▁hart	-9.70253
▁runde	-9.70361
▁nacht	-9.70403
▁aufbau	-9.70458
▁präsidenten	-9.70483
▁hauptort	-9.70494
unterricht	-9.70546
▁höher	-9.70577
▁krise	-9.70665
▁regie	-9.70824
▁ständig	-9.70838
▁f	-9.70856
▁jüngere	-9.70886
ebene	-9.70967
▁aktuelle	-9.7098
j	-9.71007
seite	-9.71043
band	-9.71045
▁dach	-9.71046
hausen	-9.71082
ell	-9.71086
▁bewusst	-9.71148
▁aufgebaut	-9.7115
ga	-9.71151
▁nutzung	-9.71181
▁do	-9.71375
▁bürgermeister	-9.71422
▁fallen	-9.71458
▁sorgen	-9.71497
▁u	-9.71501
▁ordnung	-9.71503
▁ur	-9.71566
▁jene	-9.71617
▁meistens	-9.7163
▁erklärt	-9.71663
▁behörden	-9.71688
▁zählen	-9.7169
▁volk	-9.717
familie	-9.71782
▁fenster	-9.71804
führung	-9.71899
▁schweizer	-9.71933
▁spezielle	-9.71934
zentrum	-9.71949
▁solcher	-9.71949
▁blau	-9.71971
▁nahezu	-9.72
▁zweifel	-9.72155
▁historisch	-9.72155
▁begrüße	-9.72202
▁wind	-9.72209
▁dich	-9.72228
wirtschaft	-9.72237
▁bedingungen	-9.72264
▁aufgeführt	-9.72282
▁meer	-9.72293
▁institutionen	-9.72319
▁leiter	-9.72341
▁geschrieben	-9.72351
▁leitung	-9.72361
▁polnische	-9.72403
▁universitäten	-9.72416
▁schützen	-9.72533
▁brücke	-9.72546
▁ben	-9.72605
▁höhe	-9.72635
▁entschieden	-9.72644
▁rest	-9.72667
▁häuser	-9.72767
isierung	-9.72785
▁and	-9.72877
▁offenbar	-9.72877
▁hälfte	-9.72892
▁bereichen	-9.72911
▁gemeindegebiet	-9.72938
▁angegeben	-9.72974
entwicklung	-9.72977
▁nderungen	-9.72989
▁leitet	-9.73011
▁standpunkt	-9.73083
▁näher	-9.73144
▁praktisch	-9.73147
▁reaktion	-9.73208
▁schauspielerin	-9.73221
ort	-9.73239
anlage	-9.73378
▁dialog	-9.73408
▁unterscheiden	-9.73428
▁leisten	-9.73439
▁idee	-9.73487
▁stiftung	-9.73538
▁abkommen	-9.73612
▁beispiele	-9.73645
▁musikalische	-9.73678
▁erweitert	-9.73684
▁betroffen	-9.73741
▁not	-9.7381
pe	-9.73834
meisterschaft	-9.73842
▁tier	-9.73902
▁betriebs	-9.7398
▁baum	-9.74092
▁rad	-9.74114
▁texte	-9.74123
▁silber	-9.74123
▁richtige	-9.74131
welt	-9.74309
▁bewegung	-9.7436
▁zeitung	-9.74369
▁gelegenheit	-9.74396
ot	-9.74459
▁schön	-9.7447
▁kulturelle	-9.74487
▁lager	-9.74566
▁übertragen	-9.74637
▁vergangenheit	-9.74639
▁haushalt	-9.74642
▁filme	-9.74654
▁dringend	-9.74662
nfalls	-9.74695
▁finanzierung	-9.74739
▁ra	-9.74825
▁durchaus	-9.74852
▁bestandteil	-9.74922
▁flügel	-9.74925
▁politiker	-9.75014
▁regionen	-9.7502
▁person	-9.75023
isten	-9.75037
▁lokale	-9.75067
▁einfache	-9.75132
▁ffentlichkeit	-9.75246
▁führung	-9.75252
▁entlang	-9.75253
▁trifft	-9.75291
buch	-9.75329
▁m	-9.75331
▁feuer	-9.75395
▁anderes	-9.75396
▁bieten	-9.75453
ha	-9.75476
▁essen	-9.75547
▁musiker	-9.75551
▁ausgebildet	-9.75563
▁werte	-9.75685
▁ermöglicht	-9.75719
ve	-9.7579
▁theologie	-9.75808
▁spanien	-9.75844
▁lissabon	-9.75857
▁weibchen	-9.75859
▁bach	-9.759
▁stern	-9.75916
▁verhalten	-9.76081
bild	-9.76137
▁verurteilt	-9.76303
▁denken	-9.76411
▁stunden	-9.76432
▁großbritannien	-9.76468
▁geändert	-9.76477
▁festgelegt	-9.76479
▁mindestens	-9.76484
▁regisseur	-9.76492
▁jazz	-9.76497
▁geblieben	-9.76543
▁beschäftigt	-9.76554
▁mannschaften	-9.76567
▁traditionell	-9.76578
▁bischof	-9.76693
▁belegt	-9.76697
▁anson	-9.76714
▁schauspiel	-9.76787
▁schwedische	-9.76836
▁frieden	-9.76987
▁versuchte	-9.77
zeichen	-9.77042
▁eingeführt	-9.77152
▁rasch	-9.77203
▁auswirkungen	-9.77214
▁grenz	-9.77322
lo	-9.7733
▁verlauf	-9.77351
▁absolut	-9.77361
▁standort	-9.77403
▁angelegt	-9.77409
▁richter	-9.77496
▁sa	-9.77688
meisterschaften	-9.77698
▁fuß	-9.77755
▁privat	-9.77875
▁letztere	-9.77878
▁brand	-9.77892
▁gehörten	-9.77929
▁brüder	-9.77958
▁minute	-9.77966
▁schlecht	-9.77973
▁material	-9.78044
▁schwarze	-9.7817
▁darstellung	-9.78199
ed	-9.78272
▁eingerichtet	-9.78353
▁finde	-9.78394
▁stellung	-9.78432
▁instrument	-9.7852
▁song	-9.78521
▁blut	-9.78553
▁typisch	-9.78571
▁stamm	-9.78778
wasser	-9.78796
▁gestaltet	-9.78859
aus	-9.78901
▁radio	-9.78972
▁gegner	-9.78978
▁beeinflusst	-9.79003
▁eigentliche	-9.79053
lauf	-9.79054
klasse	-9.79116
▁lieder	-9.79172
▁partner	-9.79174
gu	-9.79177
▁initiative	-9.7919
▁gelb	-9.79207
▁glas	-9.79233
▁fahren	-9.79313
▁ca	-9.79329
▁bereiche	-9.79329
▁verliehen	-9.79425
▁tradition	-9.79461
▁englische	-9.79495
▁höchsten	-9.79524
▁fehlen	-9.79531
▁studenten	-9.79541
▁freiheit	-9.79716
eck	-9.79716
wagen	-9.79721
▁front	-9.79736
▁leute	-9.79739
▁farben	-9.79761
leben	-9.79785
vi	-9.79837
▁förderung	-9.79848
▁getrennt	-9.79891
▁positive	-9.80081
▁ta	-9.80101
▁heiratete	-9.80198
▁bu	-9.80218
▁sp	-9.80229
▁tief	-9.80233
▁kon	-9.80241
gruppen	-9.80246
▁bi	-9.8026
▁architektur	-9.80347
▁lebensmittel	-9.80421
▁hafen	-9.80426
▁aspekte	-9.80434
▁lokal	-9.80463
▁st	-9.80464
▁erheblich	-9.80494
lin	-9.80572
▁lernen	-9.80673
▁lo	-9.8071
▁legte	-9.8073
▁nderung	-9.80731
▁untersuchung	-9.8079
▁entgegen	-9.80839
wald	-9.80856
▁richard	-9.80898
▁worte	-9.80909
▁end	-9.80927
▁echte	-9.80932
▁herzlich	-9.8096
▁späteren	-9.81005
end	-9.81022
▁bringt	-9.81058
▁westlichen	-9.8125
▁braun	-9.81308
▁meter	-9.81324
▁geringe	-9.81439
▁zustand	-9.8146
▁technik	-9.81484
▁jung	-9.81537
▁lösen	-9.81564
▁großteil	-9.81579
▁ausgetragen	-9.8159
▁ausgebaut	-9.81628
▁computer	-9.81643
▁hintergrund	-9.8168
▁transport	-9.81682
▁gewisse	-9.81709
▁staffel	-9.81805
▁vorbei	-9.81813
▁maler	-9.81882
verfahren	-9.81932
▁umfangreiche	-9.81939
schlag	-9.8199
▁jemand	-9.82032
▁beschäftigte	-9.82069
▁gesetz	-9.82119
▁ausnahme	-9.8216
▁veranstaltungen	-9.8217
▁aufmerksam	-9.8219
▁school	-9.82212
▁david	-9.82219
▁te	-9.82259
▁afrika	-9.82261
▁hast	-9.82292
bo	-9.82422
▁bayerische	-9.8249
▁haltung	-9.82625
ad	-9.82663
▁verpflichtet	-9.82663
▁ba	-9.82677
▁wirtschaftlich	-9.82681
▁zusätzliche	-9.82695
▁fischer	-9.82704
▁japanische	-9.82833
dienst	-9.82848
▁nannte	-9.8287
▁sozialen	-9.82903
▁menschenrechte	-9.83073
betrieb	-9.83091
▁hannover	-9.83142
▁schwierigkeiten	-9.83147
▁original	-9.83169
▁verboten	-9.83216
▁verschiedener	-9.83222
ak	-9.83226
pa	-9.83325
▁erzielt	-9.83332
mi	-9.83342
▁links	-9.83347
▁main	-9.83354
▁minuten	-9.83404
▁lehre	-9.83412
▁struktur	-9.83432
▁wahr	-9.8347
▁langen	-9.83485
▁ho	-9.83505
▁berücksichtigt	-9.83531
▁preußische	-9.83543
▁fahrzeug	-9.83549
▁männchen	-9.8358
▁doppel	-9.83586
▁sammlung	-9.83706
tin	-9.83855
▁personal	-9.8394
musik	-9.83982
▁träger	-9.83984
▁bestimmten	-9.84004
markt	-9.84016
▁herz	-9.84066
▁eben	-9.84077
gel	-9.84307
zi	-9.84344
kreis	-9.84451
▁ufer	-9.84455
▁gesetzt	-9.84579
mar	-9.84583
▁sah	-9.84619
▁unterschied	-9.84723
▁übersetzt	-9.84727
▁software	-9.84734
▁flugzeug	-9.84803
▁abitur	-9.84869
▁gefördert	-9.84869
bewegung	-9.84917
▁deutschsprachig	-9.84933
▁rollen	-9.84936
▁nderungsantrag	-9.84976
▁antworten	-9.85056
▁version	-9.85073
▁beginnen	-9.85269
▁ältere	-9.85321
▁anteil	-9.85326
▁rückkehr	-9.85546
▁griechenland	-9.85547
▁realität	-9.85552
▁hängt	-9.85582
▁anerkennung	-9.85634
za	-9.85665
▁teilnehmer	-9.85668
▁königreich	-9.85696
▁rock	-9.85718
▁rücken	-9.85737
▁albert	-9.85908
▁mensch	-9.85926
▁sagte	-9.85952
▁mittelalterlich	-9.85974
▁chinesische	-9.8604
▁bonn	-9.8604
▁sagt	-9.86041
▁fe	-9.86082
ich	-9.86133
ard	-9.86162
▁sand	-9.86194
▁ortschaft	-9.86284
▁tut	-9.86295
im	-9.86323
wa	-9.86408
arten	-9.86497
▁engagierte	-9.8655
▁garten	-9.86587
▁leitete	-9.86711
▁konkrete	-9.86764
gang	-9.86832
om	-9.86834
▁großes	-9.86835
durch	-9.86899
▁verhindern	-9.86909
▁leistung	-9.86994
▁offiziell	-9.87127
▁gu	-9.87197
amt	-9.87199
▁angebot	-9.87252
plan	-9.87336
▁wiederholt	-9.87447
▁anna	-9.8745
▁komplett	-9.87492
▁blätter	-9.87496
▁parteien	-9.87518
▁zürich	-9.87589
▁künstlerische	-9.876
▁begraben	-9.87617
ir	-9.87624
▁juni	-9.87636
▁mädchen	-9.87661
▁angeles	-9.87687
▁or	-9.87704
▁irland	-9.87745
▁extrem	-9.87746
▁genaue	-9.87848
▁li	-9.87895
▁begrenzt	-9.87981
▁rechten	-9.88066
▁hause	-9.88141
▁gegend	-9.88197
▁sämtliche	-9.88274
▁komponist	-9.88276
▁unbedingt	-9.88296
▁grafen	-9.8831
▁italienischen	-9.88314
▁begrüßen	-9.88314
▁behandlung	-9.88378
sdorf	-9.88389
▁ausreichend	-9.88394
▁umgeben	-9.884
▁führten	-9.88416
▁erzielte	-9.88504
▁entscheiden	-9.88512
▁leistungen	-9.88624
▁wirken	-9.88631
▁vorstand	-9.88855
▁handlung	-9.88881
▁schriften	-9.88972
▁vergessen	-9.88984
museum	-9.88994
▁bezieht	-9.88999
schaffung	-9.8905
▁anti	-9.89074
ry	-9.89088
▁damen	-9.89097
▁sicherlich	-9.89141
▁wichtiges	-9.89151
▁angriff	-9.89165
▁alternative	-9.89166
▁sachsen	-9.89325
▁benötigt	-9.8936
▁streit	-9.89394
▁reichen	-9.89431
▁erfahrungen	-9.89436
▁transparenz	-9.89708
▁dresden	-9.89717
▁reden	-9.89767
sverfahren	-9.89777
min	-9.8985
verkehr	-9.89857
▁motor	-9.89938
▁griechischen	-9.89963
fall	-9.90016
▁hl	-9.9002
▁möglichst	-9.90024
▁inseln	-9.90051
▁gebieten	-9.90121
▁salz	-9.90121
spolitik	-9.90126
häuser	-9.90177
▁maschinen	-9.9023
▁offensichtlich	-9.90406
▁entsteht	-9.9041
▁letztlich	-9.90411
▁monaten	-9.90424
▁entwickeln	-9.90441
▁amerikanische	-9.90528
▁besuch	-9.90552
▁einiger	-9.90553
turm	-9.9057
▁verbreitung	-9.90574
▁herstellung	-9.90605
▁städten	-9.9069
▁strom	-9.90749
▁sichtbar	-9.90825
weise	-9.90852
▁funde	-9.90912
▁religiöse	-9.90913
▁spitze	-9.90998
▁ausland	-9.91027
▁linken	-9.91046
rad	-9.91077
▁besaß	-9.91082
▁üblich	-9.91116
▁abgelehnt	-9.91121
▁klare	-9.91145
▁wunsch	-9.91155
▁goldene	-9.9118
▁getragen	-9.91184
▁euch	-9.91259
▁institut	-9.91267
▁gewicht	-9.91335
▁sicherheits	-9.91375
▁aufnahme	-9.91433
iz	-9.91489
▁pläne	-9.9164
▁beendet	-9.91657
▁joseph	-9.91676
ein	-9.9169
▁vaters	-9.91704
▁lehnte	-9.91723
▁entscheidend	-9.91745
▁getötet	-9.9184
▁zumeist	-9.91843
▁reste	-9.91875
▁ni	-9.91978
ster	-9.92001
▁vertrauen	-9.92008
▁düsseldorf	-9.92074
▁dortige	-9.92079
▁intensiv	-9.92178
ny	-9.92415
tag	-9.92468
▁verstärkt	-9.92504
▁bekannten	-9.92516
▁haushalts	-9.92615
▁dahin	-9.92636
▁engagement	-9.92812
▁publikum	-9.92826
▁erwarten	-9.92882
▁schiffe	-9.92899
▁erfolgreiche	-9.92992
▁gegenteil	-9.93053
▁vorgänger	-9.93074
▁freund	-9.93082
▁glück	-9.931
züge	-9.93266
▁unklar	-9.93285
▁geleistet	-9.93295
▁überliefert	-9.93295
▁nennt	-9.93295
▁bremen	-9.93297
▁südöstlich	-9.933
▁verwaltungssitz	-9.93306
▁gedreht	-9.93339
▁alben	-9.93345
mittel	-9.93431
▁erde	-9.93542
▁walter	-9.93565
▁schreibt	-9.93608
▁organisiert	-9.93653
▁schließen	-9.93751
▁aktivitäten	-9.93838
hand	-9.93845
▁verlag	-9.93847
▁landschaft	-9.93904
▁halle	-9.93993
▁präsidentschaft	-9.94019
▁ausgeführt	-9.94066
▁menge	-9.94089
▁funktioniert	-9.94179
▁einführung	-9.94182
ken	-9.94228
▁gast	-9.9432
▁geschäfts	-9.94351
▁allgemeine	-9.94364
▁hermann	-9.94391
▁beschäftigung	-9.94413
▁auftreten	-9.94418
▁wohnt	-9.94419
ut	-9.94435
▁bemerkungen	-9.94518
▁beiträge	-9.9457
▁aktuell	-9.94577
wert	-9.94594
sicherheit	-9.94623
▁erhält	-9.94764
▁umgesetzt	-9.94771
▁widerstand	-9.94795
▁vorgelegt	-9.94804
▁alexander	-9.94807
▁fordern	-9.94835
▁zuge	-9.94855
▁aspekt	-9.94875
▁verordnung	-9.94959
inger	-9.94969
▁juden	-9.95078
▁betriebe	-9.95222
▁israel	-9.95259
▁breite	-9.95289
ian	-9.9534
enberg	-9.95404
ale	-9.95428
▁wege	-9.95457
▁zugeordnet	-9.95517
▁mark	-9.95547
handel	-9.95566
▁verhältnis	-9.95586
▁frühere	-9.95652
▁finale	-9.95691
▁breit	-9.95693
▁müller	-9.95702
▁konflikt	-9.95748
▁gezogen	-9.958
är	-9.95821
▁ursprüngliche	-9.95847
▁autoren	-9.95912
▁pe	-9.96007
▁berufs	-9.96069
▁belegte	-9.96069
ang	-9.96186
▁tanz	-9.96192
▁offene	-9.96211
▁unterscheidet	-9.96269
▁dreißigjährige	-9.96284
ci	-9.96366
rlei	-9.96409
▁sendung	-9.96411
▁offizielle	-9.96469
▁blick	-9.96577
▁nennen	-9.96586
isiert	-9.96605
▁persönliche	-9.96621
▁staatliche	-9.96803
▁projekte	-9.96923
▁wahrheit	-9.97036
▁herausgeber	-9.97066
▁orgel	-9.97088
▁zustimmung	-9.97104
▁wild	-9.97125
▁läuft	-9.97131
▁bot	-9.97141
▁tode	-9.97159
▁dreimal	-9.97167
▁gattung	-9.97185
▁division	-9.97254
▁verstanden	-9.9752
▁grundlegende	-9.97685
tra	-9.97726
by	-9.97742
▁einrichtung	-9.9776
▁definiert	-9.9779
▁ste	-9.97801
per	-9.97817
▁forta	-9.97878
▁ger	-9.97893
druck	-9.97914
▁gedichte	-9.97939
▁brach	-9.97964
ium	-9.97966
▁auffassung	-9.98031
▁ex	-9.98064
▁figur	-9.98142
▁entscheidende	-9.98443
▁bauern	-9.98501
▁erhöht	-9.98515
▁tagesordnung	-9.98563
▁münster	-9.98577
▁mittelpunkt	-9.98589
ay	-9.9859
ph	-9.98605
gi	-9.98614
▁bestehende	-9.98646
ingen	-9.98681
▁car	-9.98819
▁gutes	-9.98857
kel	-9.98871
▁marine	-9.98882
▁speziell	-9.9895
▁entscheidungen	-9.98983
▁verkehr	-9.99054
▁bessere	-9.99102
▁russischen	-9.99147
krieg	-9.9923
▁örtliche	-9.99298
▁kenntnis	-9.99299
▁weisen	-9.99351
▁technisch	-9.99389
▁botschaft	-9.99459
▁entwurf	-9.99496
▁kämpfen	-9.99546
▁verletzt	-9.99581
▁quelle	-9.99584
▁gekommen	-9.99607
▁con	-9.99685
▁hersteller	-9.99715
▁single	-9.99737
▁hundert	-9.99794
▁su	-9.9989
▁haut	-9.9994
▁ga	-9.99946
▁pa	-9.99968
▁solidarität	-10.0002
▁september	-10.0012
▁verbessern	-10.0012
▁moskau	-10.0012
▁songs	-10.0013
so	-10.0014
▁christliche	-10.0025
nteils	-10.0032
▁vierten	-10.0033
verband	-10.0039
▁erlaubt	-10.0041
▁bor	-10.0043
▁produkt	-10.0051
linie	-10.0053
▁endet	-10.0061
rie	-10.0063
▁besucher	-10.0071
geschäftsordnung	-10.008
▁ursache	-10.0084
▁entwe	-10.0085
▁ruf	-10.0087
▁niemals	-10.009
▁heidelberg	-10.009
▁freunde	-10.0095
▁passiert	-10.0096
▁gebrauch	-10.0097
▁gebiete	-10.0103
▁zieht	-10.0104
▁literarische	-10.0104
▁nochmals	-10.0106
▁meisterschaft	-10.0109
▁generation	-10.0111
teil	-10.0111
▁antike	-10.0112
▁fahr	-10.0115
▁untersucht	-10.0116
netz	-10.012
▁george	-10.0129
▁evangelischen	-10.0129
▁e	-10.0131
▁berichts	-10.0134
▁zeigte	-10.0139
▁erhebliche	-10.0141
▁instrumente	-10.0143
▁wechsel	-10.0147
▁eisen	-10.015
▁innen	-10.0157
▁binnenmarkt	-10.0158
▁ad	-10.0162
▁verschieden	-10.0162
▁reformen	-10.0163
▁konzerte	-10.0167
▁voraus	-10.0168
▁hieß	-10.017
▁weshalb	-10.017
▁besitzer	-10.0172
fragen	-10.0174
▁angebracht	-10.0184
▁definition	-10.0185
fahrt	-10.0195
▁geschützt	-10.0217
vor	-10.0219
▁indien	-10.0219
▁test	-10.0221
▁schild	-10.0225
▁ball	-10.0231
▁cor	-10.0246
▁bekanntesten	-10.025
▁oktober	-10.025
▁ändern	-10.025
▁kanada	-10.025
▁geteilt	-10.025
▁gefertigt	-10.0255
▁grafschaft	-10.0256
▁stimmt	-10.0261
▁gesundheits	-10.0262
▁informations	-10.0262
▁gesundheit	-10.0268
▁vogel	-10.027
▁starken	-10.0271
▁schrift	-10.0274
▁au	-10.0275
▁krankheit	-10.0277
▁annahme	-10.0286
▁dichter	-10.0286
▁bibliothek	-10.0297
▁bestätigt	-10.0297
▁planung	-10.0301
leiter	-10.0303
▁presse	-10.0304
▁lauf	-10.0312
▁inneren	-10.0318
▁auge	-10.032
▁ereignisse	-10.0323
▁roten	-10.0324
▁dänemark	-10.033
▁nachgewiesen	-10.033
▁rudolf	-10.033
▁james	-10.0331
▁integration	-10.0333
▁beschränkt	-10.0337
▁verbesserung	-10.0346
▁for	-10.0349
▁zustimmen	-10.0349
▁flach	-10.0354
▁kannst	-10.0355
▁nördliche	-10.0357
▁ku	-10.036
satz	-10.0361
mal	-10.0368
▁geeignet	-10.037
▁verfolgt	-10.0372
po	-10.0376
sprache	-10.0378
ac	-10.0379
▁erstreckt	-10.0381
brücke	-10.0388
▁regelung	-10.0392
▁direktor	-10.0398
▁erfordert	-10.0402
▁wider	-10.0402
▁evangelisch	-10.0406
▁quer	-10.0408
▁jüngste	-10.0414
▁untergebracht	-10.0416
tel	-10.0422
▁schließt	-10.0431
▁ungarn	-10.0432
▁untersuchungen	-10.0434
▁diesbezüglich	-10.0436
▁gestaltung	-10.0439
förmig	-10.0444
▁freiburg	-10.0449
serie	-10.045
park	-10.0453
▁enge	-10.0458
▁club	-10.0476
▁dürfte	-10.048
ku	-10.048
▁gering	-10.0482
ring	-10.0483
du	-10.0484
verein	-10.0484
▁standen	-10.0492
▁oberen	-10.0492
▁erwarb	-10.0494
▁naturpark	-10.0495
ski	-10.0498
kultur	-10.051
▁geriet	-10.051
▁erstes	-10.0523
▁kurzen	-10.0533
▁si	-10.0533
▁führende	-10.0537
▁schwach	-10.0545
▁mr	-10.0545
▁real	-10.0551
▁berichterstatt	-10.0552
▁wachstum	-10.0552
▁bezirks	-10.0553
▁linien	-10.0556
▁weiße	-10.0559
▁komme	-10.0565
▁basiert	-10.0566
▁william	-10.0566
▁fern	-10.0569
▁tages	-10.0572
▁verdient	-10.0572
▁legen	-10.0575
▁unterstütze	-10.0579
▁benötigen	-10.0579
▁gelöst	-10.058
▁wolf	-10.058
▁gemälde	-10.0585
▁fisch	-10.0588
ica	-10.059
ru	-10.0591
▁air	-10.0596
▁programme	-10.0605
▁patienten	-10.0608
▁graf	-10.0608
sel	-10.0611
▁regionale	-10.0617
film	-10.0631
▁tri	-10.0634
▁erfüllt	-10.0635
▁lösungen	-10.0643
▁arbeitsplätze	-10.0649
▁kommissarin	-10.0652
▁klaus	-10.0653
reich	-10.0655
▁erlangte	-10.0657
▁begonnen	-10.066
lager	-10.0662
▁wächst	-10.0663
ordnung	-10.0667
▁ursprung	-10.0671
▁abhängig	-10.0675
op	-10.0676
▁ritter	-10.0677
pi	-10.0678
▁methoden	-10.0681
▁inhalt	-10.0681
▁weißen	-10.0688
▁wohn	-10.0696
▁sowjetische	-10.0699
▁private	-10.07
▁reisen	-10.0703
sp	-10.0703
ll	-10.0708
▁entwicklungs	-10.071
▁hotel	-10.0712
▁funktionen	-10.0717
▁vorgeschlagen	-10.0728
▁orte	-10.0729
▁russische	-10.073
▁entdeckt	-10.0741
schrift	-10.0743
▁vorbild	-10.0745
che	-10.0745
▁strecken	-10.0746
▁kindheit	-10.0746
▁jura	-10.0746
▁schuf	-10.0747
▁übernehmen	-10.0757
▁methode	-10.0767
kampf	-10.0771
fl	-10.0779
▁fischerei	-10.078
▁dicht	-10.0794
▁spielten	-10.0801
▁gelegene	-10.0804
▁station	-10.0806
▁guter	-10.081
▁abschnitt	-10.0818
ther	-10.0824
führer	-10.0828
▁angeordnet	-10.0828
▁ehefrau	-10.0829
▁gestern	-10.083
▁einzigen	-10.083
▁saint	-10.0831
▁aufgelöst	-10.0832
▁fahrer	-10.0836
▁unterschieden	-10.0836
▁monat	-10.0838
▁hauses	-10.0842
gymnasium	-10.0845
▁südliche	-10.0854
▁anforderungen	-10.0864
ini	-10.0868
we	-10.0877
stellen	-10.0879
▁startete	-10.0885
▁züge	-10.089
▁risiko	-10.0891
▁ursprünglichen	-10.0896
▁verbindungen	-10.0904
▁aufnahmen	-10.0908
▁wünsche	-10.0909
blick	-10.0911
▁bitten	-10.0912
▁schied	-10.0914
▁donau	-10.0916
▁deine	-10.0916
▁preise	-10.0917
▁gefordert	-10.0918
▁ru	-10.0922
▁we	-10.0925
▁unten	-10.0927
▁güter	-10.093
▁erhältlich	-10.0931
▁revolution	-10.0933
▁oberste	-10.0939
▁anspruch	-10.0946
▁verfügbar	-10.0951
▁schlüssel	-10.0953
▁bühnen	-10.0953
fest	-10.0959
▁elektrische	-10.0963
ni	-10.0966
▁sage	-10.0983
▁berichte	-10.0991
versammlung	-10.0992
▁gouverneur	-10.0998
▁schwarzen	-10.0999
▁geklärt	-10.1
▁reduziert	-10.1
▁online	-10.1
▁versehen	-10.1002
▁freundschaft	-10.1002
▁rote	-10.1003
▁heut	-10.1003
▁fertig	-10.1005
studium	-10.101
▁dreh	-10.1015
▁firmen	-10.1016
▁verhindert	-10.1017
kommen	-10.1021
▁entschied	-10.1027
▁maßgeblich	-10.1032
▁gerecht	-10.1035
▁privaten	-10.1036
▁grundschule	-10.1045
▁metall	-10.1047
▁har	-10.1052
▁vertrieben	-10.1057
▁vereint	-10.1059
▁ke	-10.1059
▁turnier	-10.1063
▁verbessert	-10.1065
▁kar	-10.1071
▁eigenschaften	-10.1082
ey	-10.1083
▁auswahl	-10.1087
▁satz	-10.1088
▁fördern	-10.1089
▁vielfach	-10.1091
▁sänger	-10.1097
▁herum	-10.1097
▁erzählt	-10.1098
▁frank	-10.1099
▁status	-10.11
ya	-10.1109
▁mel	-10.111
▁einheit	-10.1114
▁direkte	-10.1115
▁nötig	-10.1124
▁südwestlich	-10.1126
spieler	-10.113
▁herzog	-10.1133
▁teils	-10.1134
nd	-10.1135
▁festung	-10.1145
▁vorschriften	-10.1147
▁jo	-10.1147
▁versuche	-10.1147
ham	-10.1156
ft	-10.116
▁wirkt	-10.1163
▁romane	-10.1163
gt	-10.1164
▁spätere	-10.1168
▁chance	-10.1171
▁freue	-10.1174
▁gesichert	-10.1175
▁erhielten	-10.1176
▁freier	-10.1176
▁armut	-10.118
▁unterstellt	-10.1181
▁elektronische	-10.1182
▁hall	-10.1183
▁fritz	-10.1183
▁gründer	-10.1184
▁typische	-10.1186
▁angebaut	-10.1187
▁gelegt	-10.1187
zutage	-10.1198
up	-10.12
▁ingenieur	-10.12
▁löste	-10.1202
▁asteroid	-10.1202
▁bemerkung	-10.1205
▁einheitliche	-10.1207
vo	-10.1219
▁engagiert	-10.1221
▁ring	-10.1225
▁filmen	-10.1234
▁auftrag	-10.1236
▁wall	-10.1245
▁außerordentlich	-10.1263
▁gekennzeichnet	-10.1263
▁vollkommen	-10.1264
▁kalifornien	-10.1265
▁maß	-10.1267
▁oftmal	-10.1267
▁infrastruktur	-10.1271
▁netz	-10.1273
▁vermeiden	-10.1277
halle	-10.1277
verständlich	-10.1278
▁aufstieg	-10.1279
frage	-10.1281
▁geheim	-10.1282
▁punkten	-10.1288
tätigkeit	-10.1289
▁katholisch	-10.1304
▁besatzung	-10.1321
ischer	-10.1324
▁amts	-10.1326
enden	-10.1328
lang	-10.1331
▁mittels	-10.1336
▁spanischen	-10.1338
▁zivil	-10.134
▁information	-10.1348
▁bestattet	-10.1352
▁äußere	-10.1352
▁ziemlich	-10.1352
▁unterteilt	-10.1353
▁angepasst	-10.1355
▁volksschule	-10.1356
▁folgezeit	-10.1358
▁papier	-10.136
▁flächen	-10.1362
▁drittel	-10.1363
theater	-10.1369
▁aussage	-10.137
dy	-10.1372
▁nachrichten	-10.1382
▁ausstellung	-10.1387
ett	-10.1391
▁erinnern	-10.1399
▁erfahrung	-10.14
szeit	-10.14
▁endgültig	-10.1403
▁nordamerika	-10.1404
▁wahlen	-10.1426
▁endete	-10.1427
▁aktive	-10.1428
▁protokoll	-10.1429
▁anerkannt	-10.143
▁rechtsanwalt	-10.1443
▁bedenken	-10.1444
▁vermutet	-10.1449
▁live	-10.145
▁standard	-10.1453
▁anliegen	-10.1456
endorf	-10.1458
▁grünen	-10.1461
karriere	-10.1464
▁nordwestlich	-10.1464
▁sieger	-10.1467
▁wetter	-10.1468
ou	-10.1474
cher	-10.1474
▁eröffnet	-10.1478
▁samen	-10.1482
▁präsidentin	-10.1486
eu	-10.1489
▁schuld	-10.149
▁alpen	-10.1496
▁herrscht	-10.1499
▁symbol	-10.1504
▁auftritte	-10.1507
▁komponierte	-10.151
▁bekannteste	-10.151
▁abgeordnete	-10.1518
runde	-10.1519
▁medizinische	-10.1534
▁ermittelt	-10.1534
titel	-10.1536
▁ausbau	-10.1536
▁verteilt	-10.1537
▁künftig	-10.1544
▁schlug	-10.1544
▁städtische	-10.1545
▁scheiterte	-10.155
▁östliche	-10.1553
fahren	-10.1555
▁warten	-10.1561
▁sal	-10.1563
▁einrichtungen	-10.1564
▁gesetze	-10.1578
▁gi	-10.158
▁anlass	-10.158
▁moment	-10.158
punkt	-10.1588
itz	-10.1588
▁prag	-10.1589
▁temperatur	-10.1593
frei	-10.1599
anlagen	-10.1607
▁derzeitige	-10.1609
wesen	-10.161
fa	-10.1613
▁längere	-10.1614
▁schneller	-10.1618
▁wollten	-10.1618
▁innere	-10.162
▁amerika	-10.1623
▁stellvertretend	-10.1625
▁amsterdam	-10.1625
▁behaart	-10.1625
▁nordöstlich	-10.1626
leitung	-10.1628
▁grau	-10.1645
▁unterschiede	-10.1646
▁sehe	-10.1649
ino	-10.1649
holz	-10.1655
▁aufgestellt	-10.1656
mehr	-10.1657
▁italienische	-10.166
▁erwachsene	-10.1665
▁wahlkreis	-10.1666
▁täglich	-10.1668
▁blatt	-10.1673
ierten	-10.1673
▁iran	-10.1687
▁australien	-10.169
▁aktiven	-10.1691
thal	-10.1692
▁irak	-10.1699
▁records	-10.1718
▁sowjetunion	-10.1718
▁angeblich	-10.1718
▁kolleginnen	-10.1719
▁heimatstadt	-10.1721
▁wolfgang	-10.1722
▁arbeitnehmer	-10.1722
▁milch	-10.1734
▁figuren	-10.1734
▁bern	-10.1735
▁schäden	-10.1737
▁stücke	-10.1739
fo	-10.1744
▁zugelassen	-10.1747
bank	-10.1748
reihe	-10.1756
▁philipp	-10.1767
▁versuch	-10.1784
▁aktion	-10.1789
▁beschlossen	-10.1789
▁juli	-10.1794
wand	-10.1806
▁verwenden	-10.1811
▁anhänger	-10.1813
▁stahl	-10.1813
▁bemühungen	-10.1815
▁laufen	-10.1816
▁ausführungen	-10.1819
▁jan	-10.1822
▁kollege	-10.1823
▁streng	-10.1824
▁verkauf	-10.183
▁bre	-10.1833
▁erklären	-10.1834
▁analyse	-10.1838
▁konzert	-10.1841
hi	-10.185
▁malerei	-10.185
ment	-10.1851
▁zer	-10.1852
▁bersetzung	-10.1855
▁nürnberg	-10.1857
ov	-10.1864
kraft	-10.1868
▁alkohol	-10.1868
▁mission	-10.187
▁north	-10.1873
▁fliegen	-10.1877
▁kunden	-10.1879
produktion	-10.188
▁dauer	-10.1882
▁nordosten	-10.189
▁nahmen	-10.1898
▁brandenburg	-10.1902
▁voneinander	-10.1906
▁royal	-10.1906
▁vertrat	-10.1908
▁jagd	-10.1913
▁lehr	-10.1916
▁globale	-10.1916
▁flucht	-10.1918
▁kritisiert	-10.1922
fi	-10.1926
ette	-10.1926
▁erhoben	-10.193
kt	-10.1935
▁mut	-10.1961
ah	-10.1963
▁leiden	-10.1966
istische	-10.1972
▁baute	-10.1975
▁hals	-10.1979
organisation	-10.1981
▁integriert	-10.1981
▁geburt	-10.1984
▁hell	-10.1994
▁portugal	-10.2001
▁terrorismus	-10.2001
▁entstehung	-10.2003
▁fortschritt	-10.2004
▁abgebaut	-10.2004
▁getroffen	-10.2007
▁angesiedelt	-10.2009
▁länge	-10.2009
▁vorhaben	-10.2009
▁kriterien	-10.2012
▁klassen	-10.2013
▁anton	-10.2022
▁pan	-10.2023
▁koch	-10.2028
▁müsste	-10.2029
gebäude	-10.203
sektor	-10.2032
▁unterstützte	-10.204
theorie	-10.2043
▁mon	-10.2045
jo	-10.2045
plätze	-10.2045
▁älteren	-10.2049
nitz	-10.2049
▁salzburg	-10.205
▁geschwindigkeit	-10.2052
öl	-10.2057
sort	-10.2062
hm	-10.2074
▁verbot	-10.2086
▁zählte	-10.2091
▁teilnahme	-10.2094
▁vi	-10.2097
▁mündet	-10.2097
▁hinterließ	-10.2097
▁besiedlung	-10.21
▁josef	-10.2101
▁vorkommen	-10.2106
▁belgien	-10.2106
gut	-10.2106
▁ausgeschlossen	-10.2108
▁inne	-10.2111
▁göttingen	-10.2112
▁restliche	-10.2118
ly	-10.2125
▁bus	-10.2126
lu	-10.2133
▁heim	-10.2137
ven	-10.2144
▁bevorzugt	-10.2146
▁ei	-10.2154
träger	-10.2155
▁vereine	-10.2161
▁sinnvoll	-10.2163
▁denkmalschutz	-10.2169
▁automatisch	-10.2169
▁op	-10.2171
▁handelte	-10.2176
▁religion	-10.2179
richterstatterin	-10.2184
▁beliebt	-10.2187
▁gelingt	-10.2194
▁ermöglichen	-10.2194
▁stängel	-10.2196
the	-10.2197
bauten	-10.2197
▁geweiht	-10.2198
▁zwanzig	-10.2198
▁nunmehr	-10.2199
weit	-10.2206
schiff	-10.2207
▁wärme	-10.2208
▁barock	-10.2209
▁angeschlossen	-10.2209
modell	-10.221
▁persönlichkeit	-10.2216
▁werken	-10.2219
▁arbeiter	-10.2224
▁benachbarte	-10.2225
▁lesen	-10.2227
▁mathematik	-10.2228
▁ergibt	-10.2238
tik	-10.2241
ost	-10.2241
produktionen	-10.2252
▁mauer	-10.2254
▁red	-10.2254
▁finanziert	-10.2263
kammer	-10.2265
▁bauwerk	-10.2269
pel	-10.2273
▁besetzung	-10.2278
▁sprecher	-10.2285
rot	-10.2289
▁berücksichtigen	-10.2292
▁einverstanden	-10.2292
▁geöffnet	-10.2292
▁bedeckt	-10.2293
▁brüssel	-10.2294
wechsel	-10.2295
▁modelle	-10.2303
tsch	-10.2307
▁kiel	-10.2308
▁hoffen	-10.2312
hn	-10.2312
▁wiederaufbau	-10.2314
▁villa	-10.2315
▁wiederholen	-10.233
▁gedanken	-10.233
▁zufrieden	-10.233
auf	-10.2334
▁veranstaltung	-10.2336
que	-10.2341
▁hamburger	-10.2349
▁zeitgenössische	-10.2355
▁keinem	-10.2365
▁za	-10.2365
ud	-10.237
forschung	-10.2372
▁internationaler	-10.2372
▁reine	-10.2384
▁ideen	-10.2385
▁eigenständige	-10.239
▁bedroht	-10.2391
▁november	-10.2391
▁earl	-10.2391
▁generell	-10.2391
▁ausstellungen	-10.2395
▁abge	-10.2395
bildung	-10.2397
▁anlagen	-10.2402
haft	-10.2403
istischen	-10.2406
▁denkmal	-10.2408
▁ausgestellt	-10.241
▁spanische	-10.2416
▁organisationen	-10.2428
stiftung	-10.2432
▁par	-10.2434
namen	-10.2438
▁systeme	-10.2438
▁stehende	-10.2441
▁vo	-10.2444
ron	-10.245
▁museums	-10.245
▁wa	-10.2457
▁einge	-10.2464
▁lief	-10.2465
strecke	-10.2466
▁konstruktion	-10.2473
▁verlegt	-10.2476
sberg	-10.2479
▁ausgaben	-10.2483
verbindung	-10.2484
▁eingang	-10.2486
▁lieber	-10.2488
▁beherbergt	-10.2491
▁beinhaltet	-10.2491
▁united	-10.2491
▁ausgerichtet	-10.2491
rum	-10.2493
▁urteil	-10.2494
▁gesetzgebung	-10.25
▁geschäftsführer	-10.2506
▁kennt	-10.2506
▁funk	-10.2508
▁umfasste	-10.2509
▁klub	-10.251
zer	-10.2511
▁stabilität	-10.2519
▁bundestag	-10.252
haupt	-10.2524
bericht	-10.2525
▁forderungen	-10.2532
▁frühe	-10.2535
▁berwachung	-10.2537
▁phase	-10.2538
▁oberfläche	-10.2538
▁verfasst	-10.2541
richtung	-10.2541
▁legt	-10.2544
▁schritte	-10.2548
▁umfassende	-10.2551
friedhof	-10.2553
▁tagen	-10.2557
▁krone	-10.2559
ologie	-10.2565
▁pflicht	-10.2573
▁theorie	-10.2582
▁diskutieren	-10.2592
▁world	-10.2592
rseits	-10.2593
▁drehbuch	-10.2593
▁aussagen	-10.2594
▁gefährdet	-10.2596
▁werner	-10.2597
▁eier	-10.2599
▁erscheinung	-10.2601
▁umfang	-10.2603
▁geleitet	-10.2605
▁stadion	-10.2607
▁architekten	-10.2608
stätte	-10.2618
▁zeiten	-10.2636
▁haft	-10.264
▁stattfinden	-10.2642
kon	-10.2642
▁küste	-10.2644
stück	-10.2654
▁verfassungs	-10.2659
▁begleitet	-10.2661
don	-10.2661
▁nahrung	-10.2669
▁orden	-10.2684
▁kirchliche	-10.2688
sbereich	-10.269
berger	-10.2692
par	-10.2693
▁betreibt	-10.2694
▁insekten	-10.2694
▁hoher	-10.2695
sheim	-10.2696
▁herrscher	-10.2698
▁betrug	-10.2701
▁währung	-10.2701
▁daniel	-10.2706
▁sam	-10.2707
▁gegenstand	-10.2709
last	-10.2713
▁beobachtet	-10.2714
▁sozialdemokrat	-10.2718
▁erbaut	-10.2722
▁schach	-10.2722
anz	-10.2724
▁kräfte	-10.2728
▁x	-10.273
bezüglich	-10.2734
▁vierte	-10.2735
▁pass	-10.2738
▁viertel	-10.2742
▁ratspräsident	-10.2747
▁maschine	-10.2748
▁priorität	-10.2753
▁traf	-10.2765
▁taten	-10.2771
▁asien	-10.2776
▁partnerschaft	-10.2777
▁begriffe	-10.2783
▁ausgabe	-10.2794
gabe	-10.2797
▁gustav	-10.2797
▁angesicht	-10.2797
bedingungen	-10.28
▁feuerwehr	-10.2801
▁bezeichnete	-10.2814
▁bestimmungen	-10.282
▁soweit	-10.2824
▁bewohnt	-10.2827
▁vieler	-10.283
region	-10.2839
▁landtag	-10.2846
bruch	-10.2846
ville	-10.2848
▁schaden	-10.2856
▁evangelische	-10.2862
▁ordens	-10.2863
▁verlängert	-10.2863
▁küsten	-10.2864
fläche	-10.2865
▁forderung	-10.2869
▁grunde	-10.2882
▁suchen	-10.2882
▁vergeben	-10.2884
▁völker	-10.2884
▁ungefähr	-10.2885
▁häufiger	-10.2886
▁pop	-10.2888
▁unabhängigkeit	-10.2892
enburg	-10.2895
▁lass	-10.2899
stelle	-10.29
santrag	-10.2901
▁alfred	-10.2901
▁vereinzelt	-10.2901
▁gestatten	-10.2901
▁magdeburg	-10.2904
▁akzeptieren	-10.2908
▁davor	-10.291
▁eigentümer	-10.2912
▁anwalt	-10.2912
▁halbinsel	-10.2914
▁beweis	-10.292
▁arzt	-10.292
▁populär	-10.292
▁tübingen	-10.2927
ana	-10.293
▁gewerbe	-10.293
▁wissenschaftler	-10.294
▁umliegende	-10.2941
blatt	-10.2941
sozialismus	-10.2942
▁kauf	-10.2947
räume	-10.2948
▁bronze	-10.2951
▁signal	-10.2951
▁stunde	-10.2952
▁hessen	-10.2952
▁tisch	-10.2953
▁films	-10.2955
qui	-10.2961
igkeit	-10.2966
▁geringer	-10.2966
rin	-10.2973
▁element	-10.2977
iger	-10.2983
▁design	-10.2989
▁video	-10.299
▁dorfes	-10.2991
ziehen	-10.2993
▁mor	-10.2994
gl	-10.2995
spiele	-10.3002
▁super	-10.3004
spielen	-10.3005
▁verbindet	-10.3007
▁existenz	-10.3007
▁adolf	-10.3007
▁athen	-10.3008
▁genauso	-10.301
▁steigt	-10.3011
▁andererseits	-10.3012
▁notwendigkeit	-10.3015
▁griff	-10.302
ive	-10.3024
▁verständnis	-10.3024
▁beider	-10.3034
kunst	-10.3037
▁tatsache	-10.3042
▁farb	-10.3046
gemeinde	-10.3049
▁regen	-10.305
je	-10.3059
▁variante	-10.3062
▁erfahren	-10.3064
log	-10.3067
▁friedens	-10.3068
▁fürsten	-10.3075
▁fuhr	-10.3084
körper	-10.3086
▁show	-10.3087
voll	-10.3088
tri	-10.3091
▁prüfen	-10.3096
▁verteidigung	-10.3099
▁fälle	-10.3106
▁regionalen	-10.3106
▁gewidmet	-10.3113
▁gmbh	-10.3113
▁germanistik	-10.3113
▁gelungen	-10.3114
▁würzburg	-10.3114
▁charles	-10.3114
▁gelangen	-10.3116
▁realisiert	-10.3116
▁ausgesprochen	-10.3118
▁reserve	-10.3122
▁bauch	-10.3128
▁bauten	-10.3129
▁muster	-10.3135
▁y	-10.3137
▁fell	-10.3142
garten	-10.3145
▁werbe	-10.3145
▁gewinn	-10.3146
▁aufgegeben	-10.3146
▁dänische	-10.3156
▁maßnahme	-10.316
▁verlief	-10.3182
▁anbau	-10.3188
▁is	-10.3189
werke	-10.3189
▁kor	-10.32
len	-10.32
lei	-10.3208
▁mögliche	-10.3209
▁ze	-10.3211
stil	-10.3212
▁wende	-10.3213
▁abstieg	-10.3218
▁april	-10.3221
▁europäer	-10.3221
▁konzentrieren	-10.3221
▁rumänien	-10.3221
▁verstarb	-10.3221
▁unterricht	-10.3223
sitz	-10.3224
▁tom	-10.3225
▁beteiligten	-10.3228
▁dauert	-10.323
▁kugel	-10.3232
▁überall	-10.3233
▁folgejahr	-10.3236
▁leer	-10.3241
▁interessiert	-10.3245
▁versionen	-10.3252
▁mitgliedern	-10.3253
▁grand	-10.3255
▁reformation	-10.3262
▁vereinigt	-10.3269
▁fließend	-10.3271
▁gen	-10.3275
▁jahrzehnte	-10.3293
▁heil	-10.3295
▁pferde	-10.3305
▁santa	-10.3305
▁luxemburg	-10.3306
▁bestanden	-10.3307
▁produzent	-10.3309
▁teams	-10.331
▁orts	-10.3312
▁geräte	-10.3315
▁island	-10.3316
hen	-10.3317
▁zeitungen	-10.332
▁deutschlands	-10.3322
ai	-10.3326
▁gehandelt	-10.3329
▁interessant	-10.333
▁beträgt	-10.3331
▁preußen	-10.3334
▁glücklich	-10.3337
▁star	-10.3339
▁wirklichkeit	-10.3342
▁tür	-10.3348
nahme	-10.3352
▁breiten	-10.3352
▁lehrte	-10.3361
▁gang	-10.3361
▁tot	-10.3366
▁trocken	-10.3367
▁höchst	-10.3369
▁unmöglich	-10.3371
tet	-10.3377
▁gitarre	-10.3383
▁leichter	-10.3384
▁bel	-10.3389
▁american	-10.3389
▁niederländische	-10.3397
▁del	-10.3398
▁profi	-10.3402
▁schwierige	-10.3408
▁bedient	-10.3408
▁vorne	-10.3416
▁varianten	-10.3419
▁justiz	-10.3428
▁traditionelle	-10.3431
▁frankfurter	-10.3438
▁zusammengefasst	-10.3439
▁behandeln	-10.3439
▁beschreibt	-10.344
▁verfügen	-10.344
▁bernhard	-10.3442
▁hauptsitz	-10.3442
▁krankenhaus	-10.3442
▁rundfunk	-10.3443
▁berichtet	-10.3446
▁zoll	-10.3447
▁diskussionen	-10.3447
präsident	-10.3455
ib	-10.3458
▁studiums	-10.3465
age	-10.3467
▁auseinander	-10.3473
▁oberhalb	-10.3475
▁ortsteile	-10.3475
▁herbst	-10.348
▁inso	-10.3484
fach	-10.3494
▁fehlende	-10.3494
cker	-10.3494
les	-10.3496
▁physik	-10.3498
▁ergeben	-10.3507
▁val	-10.3509
▁gelegen	-10.3517
od	-10.3522
▁gerät	-10.3522
▁sonnen	-10.3524
▁zeugen	-10.3529
smitglied	-10.3538
▁konferenz	-10.354
▁exemplare	-10.3545
▁bur	-10.3545
si	-10.3547
▁geregelt	-10.355
▁lübeck	-10.3551
▁brief	-10.3552
▁null	-10.3552
▁sta	-10.3552
▁elektro	-10.3559
bad	-10.356
▁simon	-10.356
▁freizeit	-10.356
▁redner	-10.3561
▁hi	-10.3564
▁vorteil	-10.3566
▁ausstattung	-10.3571
▁aussehen	-10.3573
etz	-10.3574
▁beschreibung	-10.3578
▁keller	-10.3579
haltung	-10.3585
▁verwaltet	-10.3585
▁unfall	-10.3587
▁erziehung	-10.359
▁stich	-10.3595
▁niederlande	-10.3598
▁südamerika	-10.3599
▁kino	-10.3603
▁gewässer	-10.3619
▁hügel	-10.362
▁wettbewerbs	-10.362
▁gesicht	-10.362
▁abzu	-10.3621
▁bühne	-10.3623
▁suche	-10.3633
▁cha	-10.3634
▁tore	-10.3634
▁dokument	-10.3635
▁vereinbarung	-10.3638
breitungsgebiet	-10.3642
fe	-10.3648
▁betätigte	-10.3648
▁karten	-10.3656
▁straßburg	-10.3663
▁arrondissement	-10.3663
▁beruht	-10.3663
▁dementsprechend	-10.3663
▁akademische	-10.3663
▁erfüllen	-10.3663
▁mitteleuropa	-10.3663
▁litt	-10.3664
▁theologische	-10.3664
▁touristen	-10.3664
elle	-10.3664
fälle	-10.3664
▁weinbau	-10.3664
▁hervorragende	-10.3666
▁voran	-10.3666
▁südwesten	-10.3666
▁fläche	-10.3667
▁chi	-10.3669
▁priester	-10.3671
▁don	-10.3672
▁nationen	-10.3672
▁sucht	-10.3676
▁schwanz	-10.3678
▁festival	-10.3679
▁beine	-10.3683
ju	-10.3688
▁sonne	-10.369
▁einfacher	-10.369
ausbildung	-10.3691
beck	-10.3692
▁lebten	-10.3692
▁straf	-10.3693
station	-10.3694
▁besonderes	-10.3706
▁natürliche	-10.3707
rt	-10.3709
▁nordwesten	-10.3718
▁gefangen	-10.3719
▁eu	-10.3733
arbeitslosigkeit	-10.3735
▁kö	-10.3736
▁hoffnung	-10.374
▁armen	-10.3743
▁juristische	-10.3746
▁fein	-10.3746
▁lokomotiven	-10.3751
▁sorge	-10.3755
gar	-10.3758
▁bildhauer	-10.3775
▁arbeitgeber	-10.3778
▁gegenseitig	-10.3778
horn	-10.3781
▁zeitschriften	-10.3784
mon	-10.3785
▁league	-10.3785
▁ehrlich	-10.3787
▁tunnel	-10.379
▁gearbeitet	-10.3795
▁bezeichnen	-10.38
▁kohle	-10.3804
▁bier	-10.3804
▁sender	-10.3806
▁therapie	-10.3813
▁berlegungen	-10.3822
▁brücken	-10.3822
▁römisch	-10.3827
▁zahlreicher	-10.3832
▁lagen	-10.3836
▁flagge	-10.384
▁produktions	-10.3842
▁ti	-10.3844
▁roth	-10.3848
▁bewegt	-10.3854
▁wehr	-10.3856
▁gemeinschafts	-10.3861
▁autobahn	-10.3882
lau	-10.3883
▁einheiten	-10.3891
▁aufgeteilt	-10.3891
▁ausdrücklich	-10.3891
▁chicago	-10.3891
▁karlsruhe	-10.3891
▁verlieren	-10.3891
▁ausgesetzt	-10.3891
▁laubblätter	-10.3891
▁begründer	-10.3892
▁mexiko	-10.3893
▁uhr	-10.3894
▁gewissen	-10.3897
▁nahrungsmittel	-10.3898
▁beobachten	-10.39
▁produzierte	-10.3903
▁berufen	-10.3909
▁chemie	-10.3909
▁panzer	-10.391
rk	-10.391
▁verursacht	-10.3912
▁schneider	-10.3913
▁etliche	-10.3921
▁bra	-10.3922
ick	-10.3926
▁beziehen	-10.3928
tum	-10.393
▁kommunikation	-10.3932
fer	-10.3937
▁gefährlich	-10.3941
▁arm	-10.3942
stufe	-10.3943
▁ausgewählt	-10.3943
▁kamera	-10.3948
▁ländliche	-10.395
▁wären	-10.3954
▁solches	-10.3956
mus	-10.3958
▁königin	-10.396
▁anmerkungen	-10.3967
sam	-10.3968
▁erhebung	-10.3972
▁feste	-10.3987
▁langfristig	-10.3993
▁gefallen	-10.3994
▁auszeichnung	-10.3995
▁typ	-10.4
▁mainz	-10.4003
▁gebraucht	-10.4004
▁besucht	-10.4006
▁gl	-10.4006
▁allmählich	-10.4008
▁gewährleistet	-10.4008
▁äußern	-10.4008
▁letztendlich	-10.4008
▁elisabeth	-10.4008
▁bewegen	-10.4008
▁großvater	-10.4008
▁ergreifen	-10.4009
schau	-10.4009
▁music	-10.401
▁kapital	-10.4011
▁altstadt	-10.4013
▁wünschen	-10.4013
▁niederlage	-10.4017
oli	-10.4022
▁überzeugt	-10.4023
reform	-10.4025
▁diesmal	-10.403
chi	-10.4033
▁kostenlos	-10.4034
gesellschaften	-10.4038
tion	-10.4043
▁hinweisen	-10.4047
▁strukturen	-10.4049
halten	-10.4053
gg	-10.4056
▁horn	-10.4057
hagen	-10.4057
geschäft	-10.4061
▁regierungs	-10.4062
▁com	-10.4065
▁ukraine	-10.4069
▁früchte	-10.4077
▁wiesen	-10.4079
▁kritiker	-10.4079
sausschuss	-10.4087
bald	-10.4088
kreuz	-10.4088
▁qualifizierte	-10.4104
▁arabische	-10.4106
▁hu	-10.4111
▁gro	-10.4112
oren	-10.4114
▁marke	-10.4121
▁bisherigen	-10.4124
▁getreide	-10.4125
▁identisch	-10.4125
▁angst	-10.4126
▁amtierende	-10.4126
▁braunschweig	-10.4127
▁abgeleitet	-10.4128
▁lebensraum	-10.4129
▁vorgenommen	-10.4129
▁umgebaut	-10.413
▁vermittlung	-10.4131
▁chemische	-10.4132
▁einigung	-10.4132
▁verarbeitet	-10.4132
▁silberne	-10.4133
flächen	-10.4136
▁erlebte	-10.4136
▁echt	-10.4137
▁bedingt	-10.4138
▁beteiligung	-10.4139
▁heißen	-10.4151
▁entsprechen	-10.4151
▁mandat	-10.4154
▁meeres	-10.4155
▁gäste	-10.4156
▁erwartungen	-10.4159
kan	-10.4161
▁fungierte	-10.4162
▁erlernte	-10.4163
▁eingezogen	-10.4172
▁renn	-10.4174
▁wal	-10.4177
▁ange	-10.4179
geschwindigkeit	-10.418
▁kur	-10.418
▁seen	-10.4182
▁zeichnete	-10.4184
▁anwesend	-10.4187
▁pu	-10.4193
▁gefängnis	-10.4195
▁erd	-10.4197
▁mangel	-10.4206
nau	-10.4213
▁eindruck	-10.4227
▁generationen	-10.4227
▁beton	-10.423
▁spitzen	-10.4239
elt	-10.4241
▁gemarkung	-10.4241
▁ach	-10.4242
liste	-10.4242
▁regelungen	-10.4243
▁entworfen	-10.4244
▁premierminister	-10.4244
▁zuschauer	-10.4244
versorgung	-10.4245
▁vorbereitung	-10.4248
▁berprüfung	-10.4248
▁wohnung	-10.4248
▁fahrt	-10.4253
▁verletzungen	-10.4256
▁ergänzt	-10.4257
macht	-10.4258
▁heck	-10.4261
▁durchsetzen	-10.4264
▁fassade	-10.427
ari	-10.4275
▁ließen	-10.4276
▁schlechte	-10.4276
▁abteilung	-10.4277
▁cup	-10.4278
▁stadtbezirk	-10.4283
▁neubau	-10.4283
▁jahrhunderte	-10.4284
▁sitzung	-10.4291
ara	-10.4298
▁änderte	-10.4299
▁praktische	-10.43
▁richten	-10.4304
▁bon	-10.431
▁erzeugt	-10.4318
▁gerichts	-10.4319
▁sang	-10.4323
▁ausnahmen	-10.4327
▁trans	-10.4329
▁serien	-10.4333
▁kooperation	-10.4336
ausschuss	-10.4337
▁ol	-10.4351
▁begründet	-10.4354
▁südafrika	-10.4356
▁weltmeister	-10.4358
▁geist	-10.4359
▁bay	-10.4359
▁bett	-10.436
▁gypten	-10.4361
▁high	-10.4363
▁mitbegründer	-10.4365
▁unternommen	-10.4365
▁dasselbe	-10.4365
▁gewöhnlich	-10.4365
▁jegliche	-10.4365
▁onkel	-10.4365
▁blütezeit	-10.4365
lingen	-10.4369
▁mord	-10.4378
▁verlust	-10.4379
▁fett	-10.4381
▁verwendete	-10.4387
▁label	-10.4391
▁schlagen	-10.4404
▁archäologische	-10.4411
pen	-10.4412
landschaft	-10.4423
▁unabhängige	-10.4425
sfähigkeit	-10.4426
▁langjährige	-10.4427
▁erzählungen	-10.4429
lehrer	-10.4433
▁may	-10.4434
▁verwandt	-10.4456
▁mess	-10.4458
▁christen	-10.4461
▁fleisch	-10.4464
▁betroffenen	-10.4465
▁voraussetzung	-10.4474
geht	-10.4478
trag	-10.4478
▁prozent	-10.4486
▁erkennbar	-10.4487
▁hingewiesen	-10.4487
▁märz	-10.4487
▁theodor	-10.4487
nde	-10.4487
▁entlassen	-10.4487
▁black	-10.4488
▁umständen	-10.4489
grenze	-10.4489
▁nominiert	-10.4489
▁üblicherweise	-10.449
gericht	-10.4494
▁golf	-10.4494
▁hund	-10.4496
▁tschechische	-10.4498
▁bergang	-10.45
▁fährt	-10.4501
▁ideal	-10.4501
▁bewertung	-10.4505
▁stoff	-10.4506
▁jr	-10.4507
▁jahrzehnten	-10.4509
team	-10.4511
▁seltener	-10.4512
▁durchbruch	-10.4512
▁weite	-10.4517
▁umgang	-10.4517
▁bund	-10.4518
lt	-10.4518
▁wieso	-10.4518
▁volle	-10.452
▁spezifische	-10.4522
▁kammer	-10.4522
▁achten	-10.453
▁durchführung	-10.4532
▁jugendliche	-10.4538
reise	-10.4541
▁nachkommen	-10.4542
hu	-10.4544
▁jack	-10.4546
saison	-10.4547
statt	-10.4547
▁pflege	-10.4547
▁bat	-10.4549
▁altar	-10.455
strom	-10.455
▁folg	-10.4555
▁et	-10.4559
sprozess	-10.456
▁genannte	-10.456
▁jüngeren	-10.4562
▁mitteln	-10.4563
ris	-10.4563
ika	-10.4564
▁fehl	-10.4568
▁geschlecht	-10.457
problem	-10.4584
▁gesang	-10.4585
▁falle	-10.4587
▁fakultät	-10.4587
institut	-10.4588
▁willen	-10.459
vertrag	-10.46
▁redaktion	-10.4607
▁schicksal	-10.461
▁dezember	-10.461
▁ermordet	-10.461
▁stieß	-10.461
▁jakob	-10.461
▁anzutreffen	-10.461
▁einbezogen	-10.4611
▁erzielen	-10.4612
bezeichnung	-10.4614
▁weltcup	-10.4628
▁verträge	-10.4628
▁werbung	-10.4629
▁sitzt	-10.4631
▁dü	-10.4631
▁jean	-10.4634
▁best	-10.4642
▁richtet	-10.4645
▁kathedrale	-10.4645
▁investitionen	-10.4647
▁prüfung	-10.4647
rechte	-10.4648
iden	-10.4648
▁king	-10.465
ford	-10.4651
▁feder	-10.4653
▁ed	-10.4657
▁auffällig	-10.466
▁effekt	-10.4666
schicht	-10.4667
low	-10.4673
bu	-10.4675
ativ	-10.4675
▁mer	-10.4677
▁ausschusses	-10.4683
▁durfte	-10.4683
sk	-10.4684
▁nachlass	-10.4686
▁tre	-10.4692
▁klosters	-10.4692
▁säulen	-10.4694
▁institute	-10.4695
▁dein	-10.4696
▁zucker	-10.4706
staat	-10.4707
▁übte	-10.4708
▁lake	-10.4722
▁schnee	-10.4733
▁beheimatet	-10.4735
▁konsequent	-10.4735
▁reagieren	-10.4735
▁plötzlich	-10.4735
▁ausgewiesen	-10.4735
▁argentinien	-10.4736
▁kindergarten	-10.4741
▁kandidaten	-10.4741
siedlung	-10.4743
▁ungewöhnlich	-10.4743
▁saal	-10.4751
▁toten	-10.4754
bra	-10.4761
▁alleine	-10.4762
tu	-10.4763
▁schulzeit	-10.4763
▁eröffnung	-10.477
▁che	-10.4773
projekt	-10.4774
▁orchester	-10.4774
ord	-10.4781
▁geschäft	-10.4791
▁grad	-10.4793
▁auflösung	-10.4797
strategie	-10.4798
bus	-10.4801
▁inter	-10.4803
▁operation	-10.4811
▁boot	-10.4813
witz	-10.4816
▁details	-10.4819
▁negativ	-10.482
lie	-10.4822
▁pat	-10.4826
verbindungen	-10.4827
▁auftritt	-10.4828
▁journalist	-10.4831
rand	-10.4832
▁ursprungs	-10.4844
zo	-10.4845
▁sub	-10.4847
▁architekt	-10.4847
▁senat	-10.4849
▁aufklärung	-10.4853
▁eishockey	-10.4853
▁lob	-10.4853
▁opposition	-10.4858
▁ablauf	-10.4861
▁breslau	-10.4862
▁bedauerlich	-10.4862
▁weimar	-10.4862
▁festgestellt	-10.4863
▁versteht	-10.4865
▁tausend	-10.4868
▁port	-10.4872
▁vorliegenden	-10.4872
▁beantworten	-10.4872
▁ski	-10.4873
mäßig	-10.4876
▁halbfinale	-10.4881
▁schaffte	-10.4883
▁rechnung	-10.4885
▁kommando	-10.4887
▁wunder	-10.4891
▁berühmt	-10.4892
▁kölner	-10.4895
▁zi	-10.4898
▁studio	-10.4899
▁ander	-10.4902
funktion	-10.4906
▁antrieb	-10.4908
▁sankt	-10.4914
▁feiern	-10.4914
▁felsen	-10.4915
▁entwicklungen	-10.492
▁unterrichtet	-10.4927
▁ruhe	-10.4929
▁wander	-10.493
kanal	-10.493
▁indische	-10.4931
▁bord	-10.4934
▁wachsen	-10.4934
tl	-10.4935
bibliothek	-10.4935
▁musikalisch	-10.4944
ng	-10.4949
▁my	-10.495
▁gratulieren	-10.4953
▁kurt	-10.4955
▁pflanze	-10.4955
▁waffe	-10.4957
richter	-10.4958
▁massen	-10.4961
gesetz	-10.4965
bogen	-10.4966
▁telefon	-10.4967
iv	-10.4968
▁drogen	-10.4971
▁identität	-10.499
▁verhaftet	-10.499
▁eingeschränkt	-10.499
▁bundesrepublik	-10.499
▁rostock	-10.499
▁betreiben	-10.4991
▁höhen	-10.4993
zahlen	-10.4998
▁gefragt	-10.4999
▁rumpf	-10.5003
▁komponisten	-10.5003
▁gottes	-10.5004
▁platten	-10.5007
▁bekämpfung	-10.501
▁forschungen	-10.5012
ps	-10.502
▁mitunter	-10.503
▁austausch	-10.5032
▁staates	-10.5038
▁akzeptiert	-10.5039
▁hal	-10.5046
▁südosten	-10.5049
▁tu	-10.5049
▁möchten	-10.5052
▁helm	-10.5058
▁unterrichtete	-10.5058
▁miss	-10.5059
▁wand	-10.5059
field	-10.506
▁sektor	-10.5062
rich	-10.5063
gelände	-10.5064
▁niederlanden	-10.5064
▁bass	-10.5066
szene	-10.5066
▁vertrags	-10.5068
▁landkreises	-10.507
▁richtlinien	-10.5077
▁sächsische	-10.5079
▁erb	-10.508
▁spitz	-10.508
ap	-10.5083
▁alters	-10.5084
▁beschädigt	-10.5085
▁studie	-10.5087
▁bäume	-10.5087
▁tabelle	-10.5096
▁automobil	-10.5097
▁auszu	-10.5097
▁roh	-10.5101
mel	-10.511
▁selber	-10.5112
▁gedacht	-10.512
▁venedig	-10.512
▁bulgarien	-10.512
▁bekommt	-10.5123
▁präsentiert	-10.5126
▁orange	-10.5126
▁brut	-10.5131
▁zweier	-10.5131
west	-10.5138
▁szene	-10.5138
▁hinten	-10.5143
rdrheinwestfalen	-10.5144
▁dieselbe	-10.5144
flug	-10.5146
▁herzen	-10.5149
kosten	-10.5151
▁gemeint	-10.5155
▁kurzer	-10.516
▁mecklenburg	-10.5163
▁ausbruch	-10.5166
▁leistete	-10.5168
▁nachwuchs	-10.5172
pro	-10.5175
▁schau	-10.5175
▁publikationen	-10.5187
prüfung	-10.5187
▁mittelmeer	-10.5189
sammlung	-10.5189
▁hilfs	-10.519
▁marie	-10.5198
insel	-10.5199
stedt	-10.5203
▁wandte	-10.5205
yl	-10.5205
▁ungarische	-10.5211
▁hol	-10.5212
▁auflage	-10.5214
▁griechische	-10.5214
▁widerspruch	-10.5223
▁orten	-10.5229
▁pre	-10.5231
zwischenzeitlich	-10.5237
▁ausländische	-10.5239
▁mari	-10.5242
▁fordert	-10.5247
rennen	-10.5247
▁weibliche	-10.5249
▁kongress	-10.5251
▁gegliedert	-10.5251
▁humanitäre	-10.5251
▁australische	-10.5251
▁pfarrkirche	-10.5252
▁konrad	-10.5252
▁verfolgen	-10.5253
▁umgekehrt	-10.5253
▁innenstadt	-10.5254
badenwürttemberg	-10.5254
▁kapitän	-10.5254
▁heer	-10.5257
▁bestimmung	-10.5258
stände	-10.5258
▁adel	-10.5259
▁mond	-10.5259
▁interpretation	-10.526
▁renaissance	-10.526
▁award	-10.5261
▁kontrolliert	-10.5262
▁nebenbei	-10.5263
▁historiker	-10.5265
▁state	-10.5266
▁halbe	-10.5268
▁bruch	-10.5274
▁eingebaut	-10.5275
▁karte	-10.528
▁schwerpunkte	-10.5282
▁spiegel	-10.5283
▁ursachen	-10.5283
▁bergbau	-10.5288
▁freiwillig	-10.5289
▁fassung	-10.5292
▁erwartet	-10.5295
▁stock	-10.5302
▁schlicht	-10.5302
wahl	-10.5304
▁dienstleistung	-10.5305
han	-10.5316
tan	-10.5316
▁kanal	-10.5317
▁enorme	-10.5318
ue	-10.5318
▁auseinandersetz	-10.5321
pu	-10.5328
▁landwirte	-10.5331
▁bildungs	-10.5331
▁heide	-10.5338
ömischkatholisch	-10.534
▁kleinste	-10.5346
ide	-10.5348
▁dünn	-10.535
▁gefahren	-10.5356
▁islamische	-10.5357
▁bestritt	-10.5371
▁schafft	-10.5371
▁verkehren	-10.5373
▁zuständigkeit	-10.5375
▁fi	-10.5375
▁flugzeuge	-10.5377
▁hängen	-10.538
and	-10.5383
▁derselben	-10.5385
▁subsidiarität	-10.5385
▁ungeklärt	-10.5385
▁anstrengungen	-10.5385
▁gebirge	-10.5386
▁saß	-10.5386
▁verbrechen	-10.5389
setzen	-10.5391
▁finnland	-10.5393
▁befestigt	-10.5393
▁angewendet	-10.5397
▁archiv	-10.5397
lle	-10.5403
▁organisierte	-10.5409
ice	-10.5412
▁andreas	-10.5414
▁tempel	-10.5417
lose	-10.5418
kar	-10.5421
▁rechtliche	-10.5429
▁ag	-10.5433
▁kritisch	-10.5439
▁kre	-10.5446
▁abbau	-10.5446
kapelle	-10.5449
tisch	-10.5451
▁beglückwünschen	-10.5459
systeme	-10.5464
▁empfehlungen	-10.547
▁stellungnahme	-10.5475
▁ya	-10.5478
▁hauptrolle	-10.5479
▁unteren	-10.5481
ola	-10.5484
qu	-10.5485
▁angelegenheiten	-10.5492
▁enger	-10.5495
▁tra	-10.5501
▁angewandt	-10.5506
▁papst	-10.5508
▁nation	-10.5509
ty	-10.5511
▁grundsatz	-10.5512
▁veränderung	-10.5514
▁ereignis	-10.5515
▁prä	-10.5518
▁pseudonym	-10.552
▁umbenannt	-10.552
▁befreundet	-10.552
▁abgestimmt	-10.552
▁kontext	-10.552
▁stetig	-10.552
mannschaften	-10.5522
row	-10.5523
▁willkommen	-10.5523
▁leid	-10.5524
▁wagner	-10.5525
ministerium	-10.5525
▁objekte	-10.5526
pol	-10.5527
▁vorstellung	-10.553
▁riesige	-10.5532
▁frucht	-10.5532
▁dienste	-10.5532
shi	-10.5533
▁kompositionen	-10.5533
▁knochen	-10.5535
▁arme	-10.5536
▁afrikanische	-10.5538
▁schmidt	-10.5538
▁hinweise	-10.5539
▁anzu	-10.554
▁krebs	-10.5542
▁schlechter	-10.5543
▁lizenz	-10.5543
▁problemen	-10.5549
▁white	-10.5549
▁hessische	-10.5553
▁bands	-10.5553
▁auszeichnungen	-10.5555
tieren	-10.5558
▁mur	-10.5561
saal	-10.5574
nis	-10.5577
version	-10.5585
fabrik	-10.5592
▁ausführung	-10.5594
arm	-10.5602
farben	-10.5604
flügel	-10.5608
▁top	-10.5608
▁haar	-10.5614
gänge	-10.562
▁holte	-10.5622
lehre	-10.5623
▁termin	-10.563
▁vielfältig	-10.5633
▁funktionieren	-10.5635
▁heilige	-10.5635
▁spanisch	-10.5646
▁besonderheit	-10.5646
▁institution	-10.5646
▁phänomen	-10.5646
▁forst	-10.5651
arbeiter	-10.5651
▁folgend	-10.5652
▁kombination	-10.5655
ator	-10.5656
▁geprüft	-10.5657
▁hollywood	-10.5657
▁erreichbar	-10.5657
▁bundeswehr	-10.5657
▁spielzeit	-10.5658
▁unternahm	-10.5658
▁floh	-10.5661
▁kontinent	-10.5661
▁saisonende	-10.5661
▁nahen	-10.5662
▁bio	-10.5663
▁entsprach	-10.5663
▁menschenrechts	-10.5663
▁dankbar	-10.5664
▁basel	-10.5665
anstalt	-10.5669
▁siebte	-10.567
▁brasilien	-10.567
ani	-10.5672
▁befasst	-10.5674
▁westliche	-10.5675
reichen	-10.568
cke	-10.5681
▁ram	-10.5685
typ	-10.5687
▁gemäß	-10.5687
▁kurs	-10.5688
legen	-10.5689
bücher	-10.5691
▁anfrage	-10.5693
▁sc	-10.5694
▁louis	-10.5698
▁code	-10.5699
▁räume	-10.57
▁darstellen	-10.57
▁grüne	-10.5704
▁abgeordneter	-10.5712
▁einst	-10.5713
▁elektrisch	-10.5716
▁buchstaben	-10.5717
▁hotels	-10.572
weilen	-10.572
▁speicher	-10.5721
▁zeichnet	-10.5726
material	-10.5728
ssen	-10.573
▁löwen	-10.5733
▁ki	-10.5734
ssystem	-10.5738
▁absicht	-10.574
stehen	-10.5742
▁gesangs	-10.5745
ip	-10.5746
▁ansichten	-10.5746
▁finanziell	-10.5746
▁wurzeln	-10.5747
abteilung	-10.5747
oni	-10.575
▁beschluss	-10.5754
▁steine	-10.5755
▁fu	-10.5756
▁gestalt	-10.5757
▁geschichten	-10.5759
bilder	-10.5761
▁versammlung	-10.5764
licht	-10.5765
falls	-10.5771
▁schi	-10.5773
kirchen	-10.5773
▁betont	-10.5775
punkte	-10.5779
▁kra	-10.5781
▁wil	-10.5783
laden	-10.5788
▁digitale	-10.5788
▁minderheit	-10.5788
▁römer	-10.5793
▁ansässig	-10.5795
▁gezwungen	-10.5796
▁erhöhen	-10.5797
▁bertragung	-10.5798
▁entdeckte	-10.58
▁versetzt	-10.5801
▁erworben	-10.5808
▁stadtgebiet	-10.5809
▁ban	-10.581
▁norwegen	-10.5811
▁unternehmer	-10.5811
▁agentur	-10.5815
▁einflüsse	-10.5817
▁längst	-10.5817
▁wenigsten	-10.582
zellen	-10.5824
▁büro	-10.5827
▁maße	-10.5831
▁finnische	-10.5833
▁wen	-10.5839
▁zeitraum	-10.5841
preise	-10.5844
▁glatt	-10.5847
▁hört	-10.5849
▁fabrik	-10.5852
▁übrig	-10.5853
▁heinz	-10.5854
prozess	-10.5861
▁kräftig	-10.5863
▁men	-10.5866
ita	-10.587
▁notwendige	-10.5875
▁autorin	-10.5875
▁ch	-10.5876
▁stoffe	-10.5876
▁falsche	-10.5886
▁augsburg	-10.5887
kopf	-10.5892
▁wei	-10.5898
▁flüsse	-10.5906
veranstaltungen	-10.591
▁dimension	-10.5913
▁kaufmann	-10.5917
▁amateur	-10.592
regierung	-10.5923
▁systems	-10.5927
▁griechisch	-10.5927
▁anpassung	-10.5928
▁lee	-10.593
▁han	-10.5933
▁medaille	-10.5933
schlussfolgerung	-10.5936
▁ggf	-10.5937
▁adelsgeschlecht	-10.5937
▁aachen	-10.5937
▁erschlossen	-10.5938
▁kirchengemeinde	-10.5938
▁linke	-10.5938
▁verlangt	-10.5939
▁zweifellos	-10.5939
▁kapitel	-10.594
▁julius	-10.5942
▁forderte	-10.5943
▁diskriminierung	-10.5948
▁ähnelt	-10.595
▁belegen	-10.5952
▁ehemann	-10.5955
▁sätze	-10.5955
▁bedeutender	-10.5957
▁gewinnt	-10.596
▁dynastie	-10.596
▁manager	-10.5966
▁betonen	-10.597
▁dauerhaft	-10.5973
▁geboten	-10.5976
tiere	-10.5977
▁kreises	-10.5978
▁hunde	-10.5979
▁vorgang	-10.5979
all	-10.5982
▁bist	-10.5984
▁verbinden	-10.5989
▁spenden	-10.5991
▁paket	-10.5994
▁foto	-10.6001
▁erfolglos	-10.6003
▁offiziellen	-10.6003
leistung	-10.6004
▁einsetzen	-10.6006
felder	-10.601
▁zusatz	-10.6015
▁wellen	-10.6019
▁verzichtet	-10.6032
▁flusses	-10.6033
erst	-10.6033
achse	-10.6037
▁schlaf	-10.6039
▁merkmal	-10.6039
▁worten	-10.604
▁verstehe	-10.6043
▁mode	-10.6044
▁decken	-10.6045
▁himmel	-10.6049
▁dichte	-10.6052
▁voller	-10.6056
gau	-10.6063
▁franken	-10.6076
▁geplante	-10.6077
▁kopenhagen	-10.6079
▁befördert	-10.6079
▁geschieden	-10.6079
▁zeitweilig	-10.6079
▁unverändert	-10.6079
▁brown	-10.6079
▁problematisch	-10.6079
▁brust	-10.6079
▁münchner	-10.608
▁informiert	-10.608
▁herausgegeben	-10.608
jahr	-10.6084
▁täter	-10.6084
▁portugiesische	-10.6085
▁masse	-10.6085
name	-10.6085
▁basketball	-10.6085
▁verteidigen	-10.6086
▁sportler	-10.6087
▁beenden	-10.6087
▁sammelte	-10.6089
▁territorium	-10.6089
▁behalten	-10.6095
▁verlangen	-10.6096
smöglichkeiten	-10.6096
änderung	-10.61
▁journalisten	-10.6103
▁gerichtshof	-10.6105
▁messen	-10.6108
▁mühle	-10.6108
▁alternativ	-10.611
▁ersatz	-10.6112
▁annehmen	-10.6113
▁einstellung	-10.6113
▁nachfrage	-10.6115
▁green	-10.6115
hebung	-10.6123
systems	-10.6125
ös	-10.6127
▁motoren	-10.6127
▁vulkan	-10.613
▁forstwirtschaft	-10.6131
▁ju	-10.6148
▁spuren	-10.6148
vereinigung	-10.616
▁italienisch	-10.616
bundesliga	-10.6161
▁kuba	-10.6163
▁erleben	-10.6164
tur	-10.617
wi	-10.6171
ill	-10.6172
dach	-10.6172
▁unterlag	-10.6174
▁faktoren	-10.6176
▁mu	-10.6179
▁bri	-10.6179
▁beamten	-10.6189
▁lau	-10.619
▁schwestern	-10.6192
▁betrachten	-10.6194
▁mter	-10.6194
▁interessierte	-10.6196
▁dörfer	-10.6198
▁ruine	-10.62
eln	-10.6201
▁sitzen	-10.6201
▁gerichtet	-10.6202
one	-10.6204
▁initiativen	-10.6204
▁befasste	-10.6206
▁meisterschaften	-10.6209
▁engel	-10.6213
tes	-10.6217
▁vorrangig	-10.6218
▁halt	-10.6221
▁dritter	-10.6222
▁chile	-10.6223
▁interessante	-10.6223
▁stirbt	-10.6224
▁künste	-10.6224
▁befassen	-10.6224
▁stillgelegt	-10.6224
▁hoffentlich	-10.6224
▁schottland	-10.6225
▁amerikaner	-10.6226
▁variiert	-10.6226
▁belgische	-10.6228
lichkeit	-10.6228
▁smith	-10.623
▁redakteur	-10.6231
▁marburg	-10.6232
▁kabinett	-10.6233
▁verluste	-10.6234
▁einwanderung	-10.6236
of	-10.6236
▁entstammt	-10.6236
▁verehrt	-10.624
▁dienten	-10.624
▁gleichwohl	-10.6242
lis	-10.6243
▁infolge	-10.6244
▁organ	-10.6244
▁brunnen	-10.6248
▁finger	-10.6251
▁rod	-10.6251
▁kommunistische	-10.6252
▁patent	-10.6253
▁falls	-10.6253
▁fünften	-10.6253
bro	-10.6253
▁landschafts	-10.6255
scheid	-10.6259
▁märkte	-10.6262
alter	-10.6264
▁horst	-10.6266
▁unterseite	-10.6268
▁south	-10.6274
▁ev	-10.6285
▁schlag	-10.6286
▁glocken	-10.6287
setzung	-10.629
▁zeichnungen	-10.6291
blätter	-10.6295
▁enorm	-10.6298
▁selbstverständ	-10.63
▁korrekt	-10.63
▁pen	-10.6302
händler	-10.6304
effekt	-10.6308
pass	-10.6322
die	-10.6327
fu	-10.6332
▁banken	-10.6332
▁ensemble	-10.6336
▁dunkel	-10.6339
▁ausgedehnte	-10.6339
▁cu	-10.6342
skonferenz	-10.6346
▁oper	-10.6349
▁kategorie	-10.6352
▁bezogen	-10.6353
▁todes	-10.6354
▁sto	-10.6363
▁kühl	-10.6365
▁bestimmen	-10.6366
▁unterbrochen	-10.6371
▁verliert	-10.6371
▁verwundet	-10.6371
▁darauffolgende	-10.6371
▁tirol	-10.6371
▁geehrt	-10.6371
▁errichten	-10.6371
▁henry	-10.6371
▁bronzemedaille	-10.6372
▁florida	-10.6372
▁berzeugung	-10.6373
▁kontakte	-10.6377
▁vielfalt	-10.6379
▁nachfolge	-10.6379
▁veranstaltet	-10.6382
▁gleichgewicht	-10.6384
▁dokumentiert	-10.6385
▁erbe	-10.6388
▁geschmack	-10.639
struktur	-10.639
charakteristisch	-10.6392
▁tiefe	-10.6393
▁verfügte	-10.6395
▁hinein	-10.6397
chel	-10.6399
ür	-10.6402
▁chef	-10.6404
ex	-10.6408
länder	-10.6413
▁klang	-10.6416
▁nehme	-10.642
▁gelangte	-10.6424
position	-10.6426
▁fels	-10.6433
▁prioritäten	-10.6435
▁marc	-10.6435
▁wi	-10.6436
old	-10.6438
gehen	-10.6443
ete	-10.6452
▁szenen	-10.6453
▁fonds	-10.6454
▁singles	-10.6456
inseln	-10.646
▁reis	-10.6461
cha	-10.6462
treffen	-10.6463
▁abtei	-10.6464
▁umfeld	-10.6465
▁sportliche	-10.6466
▁oh	-10.6471
▁erklärungen	-10.6472
▁roma	-10.6473
▁gesch	-10.6478
▁besseren	-10.648
rei	-10.6482
▁handball	-10.6485
▁naturschutz	-10.6485
schein	-10.6495
tier	-10.6497
▁nachbarn	-10.6499
ano	-10.6502
car	-10.6506
▁hill	-10.6516
▁poly	-10.6517
▁eigentum	-10.652
▁kroatien	-10.6521
▁kaffee	-10.6521
▁major	-10.6521
▁verleihung	-10.6521
▁besorgt	-10.6521
syndrom	-10.6521
▁rücktritt	-10.6521
▁wochenende	-10.6522
▁jackson	-10.6522
▁exil	-10.6522
▁erlitt	-10.6523
▁erfreut	-10.6523
▁rückzug	-10.6524
uch	-10.6527
▁verteidiger	-10.6529
▁schatten	-10.6529
▁datum	-10.6529
▁heller	-10.6529
▁adler	-10.653
dor	-10.653
einandersetzung	-10.6531
▁mont	-10.6534
▁übernimmt	-10.6536
▁liberalen	-10.6536
▁jena	-10.6538
▁diplom	-10.654
▁eingeleitet	-10.654
▁aktien	-10.6541
▁tausende	-10.6543
▁tätigkeiten	-10.6544
▁mary	-10.6546
▁reiches	-10.6546
▁erwies	-10.6554
▁nutzer	-10.6555
schloss	-10.6561
▁anwendungen	-10.6568
mat	-10.6576
▁darstellungen	-10.6583
res	-10.6586
modus	-10.6587
stock	-10.6592
▁strategische	-10.6594
▁sterben	-10.6595
if	-10.6597
▁bergen	-10.66
ok	-10.6606
▁befanden	-10.6606
fahr	-10.6608
▁vorteile	-10.6608
▁führer	-10.661
sozialisten	-10.6611
bahnhof	-10.6615
▁erkannt	-10.6618
din	-10.6618
menge	-10.6619
▁sozialistische	-10.6621
▁binnen	-10.6623
▁zweig	-10.6625
▁komposition	-10.6631
▁dokumente	-10.6638
zeiten	-10.6639
ag	-10.6649
nehmlich	-10.6657
▁talent	-10.6663
ong	-10.6664
zy	-10.6664
▁erkennt	-10.6672
▁geschätzt	-10.6672
▁kosovo	-10.6672
▁oxford	-10.6672
▁eingereicht	-10.6672
▁gemessen	-10.6672
▁namensgeber	-10.6673
▁rechtsgrundlage	-10.6673
▁fortsetzung	-10.6674
▁oberliga	-10.6674
▁washington	-10.6675
▁großgemeinde	-10.6675
▁handwerk	-10.6676
▁abstimmen	-10.6677
▁kompliziert	-10.6678
▁minderheiten	-10.668
▁abgegeben	-10.6681
▁massiv	-10.6681
▁rathaus	-10.6682
▁stationiert	-10.6682
▁graz	-10.6684
▁ansprechen	-10.6684
▁mündung	-10.6684
▁zeichnen	-10.6684
▁dor	-10.6687
▁kassel	-10.6688
▁regelmäßige	-10.6689
▁total	-10.6694
▁williams	-10.6695
▁verliebt	-10.6698
▁vorsitz	-10.6699
ua	-10.67
▁staatlich	-10.6701
▁franzosen	-10.6701
▁niveau	-10.6702
▁regime	-10.6703
▁geschlagen	-10.6704
▁retten	-10.6706
höhe	-10.6707
atur	-10.6709
▁modern	-10.6711
▁analog	-10.6712
▁vergleichbar	-10.6712
tig	-10.6713
▁aufnehmen	-10.6717
▁männliche	-10.6718
▁zimmer	-10.6718
▁mitteilung	-10.6721
▁erreichten	-10.6721
▁qualifikation	-10.6726
▁königliche	-10.6727
▁effektiv	-10.6731
▁traum	-10.6731
eg	-10.6734
▁spieltag	-10.6739
ding	-10.6743
▁pfarrer	-10.6746
▁inhaltlich	-10.6748
▁kommerzielle	-10.6749
▁reagiert	-10.6754
▁rechtlich	-10.6756
▁netzwerk	-10.6758
▁aktionen	-10.676
direktor	-10.6761
▁christoph	-10.6777
▁berichten	-10.6794
▁objekt	-10.6794
▁förderte	-10.6799
▁teilt	-10.6799
▁nachhaltige	-10.6802
▁vorsitzende	-10.6804
▁opern	-10.6807
▁rekord	-10.6812
▁stärke	-10.6812
▁dialekt	-10.6814
weisung	-10.6814
▁pf	-10.6816
▁laub	-10.6819
▁ferdinand	-10.6826
▁jerusalem	-10.6826
▁kaufmännische	-10.6826
▁qualifizieren	-10.6826
▁verlängerung	-10.6826
▁wiesbaden	-10.6826
▁beachtung	-10.6826
▁vorbereitet	-10.6826
▁fordere	-10.6826
▁staatsbürger	-10.6826
▁erfasst	-10.6826
▁geschah	-10.6827
▁reihenfolge	-10.6827
▁behielt	-10.6827
▁atom	-10.6827
▁berreste	-10.6827
▁ostsee	-10.6828
▁vögel	-10.6829
▁unbe	-10.683
sbach	-10.6831
▁les	-10.6832
▁dick	-10.6832
rü	-10.6833
▁nummer	-10.6837
▁spielklasse	-10.6839
▁wählen	-10.684
ting	-10.6842
▁gemeinderat	-10.6845
kette	-10.6852
▁berater	-10.6853
▁indianer	-10.6854
▁islam	-10.6855
▁gestaltete	-10.686
▁sanktionen	-10.686
▁ve	-10.6861
▁ressourcen	-10.6862
▁leit	-10.6863
▁wandel	-10.6866
▁hochzeit	-10.6867
▁service	-10.687
▁reichte	-10.687
▁erklärte	-10.6873
▁bob	-10.6874
▁management	-10.6877
▁wertvolle	-10.6884
maßnahmen	-10.6885
▁rosa	-10.6889
▁master	-10.6892
ack	-10.6892
smaßnahmen	-10.6897
▁lohn	-10.6906
well	-10.6907
enbach	-10.6911
▁häufigsten	-10.6912
▁mengen	-10.6917
transport	-10.6918
▁fraktionen	-10.6921
▁dr	-10.6924
▁las	-10.6926
schutzgebiet	-10.6926
▁markiert	-10.6928
wege	-10.6929
▁provinzen	-10.6932
▁umfassend	-10.6933
dauer	-10.6934
▁leistungs	-10.6936
▁sorgte	-10.6948
▁mund	-10.6949
▁gau	-10.6954
▁bürgern	-10.6955
▁steil	-10.6962
▁geschwister	-10.6962
chleswigholstein	-10.6964
▁bell	-10.6965
▁botanische	-10.6968
▁wohnte	-10.6969
▁freude	-10.6971
▁respekt	-10.6979
▁tennis	-10.6982
▁flexibilität	-10.6982
▁fliehen	-10.6982
▁unzureichend	-10.6982
▁erzbischof	-10.6982
▁irgendwie	-10.6982
▁kurzzeitig	-10.6982
▁grundriss	-10.6982
▁behaupten	-10.6982
▁rzte	-10.6982
▁hilft	-10.6982
▁zustande	-10.6983
▁erforschung	-10.6985
▁dahinter	-10.6986
▁zurückgezogen	-10.6987
▁mikro	-10.6987
▁angehörige	-10.6991
▁gegenstände	-10.6991
▁negative	-10.6991
▁zerstörung	-10.6991
▁jürgen	-10.6992
▁kämpfte	-10.6994
kow	-10.6995
▁strand	-10.6995
▁schulter	-10.6996
▁beitragen	-10.6997
▁regierungen	-10.7001
▁feierte	-10.7002
▁psychologie	-10.7006
▁sängerin	-10.7009
▁wissenschaften	-10.701
zin	-10.7011
▁erkrankung	-10.7016
▁verlaufen	-10.7024
▁genauer	-10.7025
▁überein	-10.7026
▁schnitt	-10.7026
▁einzeln	-10.7028
▁erfurt	-10.7033
▁lind	-10.7039
▁ausge	-10.7042
▁kalk	-10.7043
▁dominiert	-10.7044
▁frisch	-10.7048
▁letztes	-10.7051
wer	-10.7054
mund	-10.7055
▁erich	-10.7059
▁bedeuten	-10.706
▁cam	-10.7061
sätze	-10.7062
▁geeignete	-10.7063
▁ändert	-10.7073
▁gedicht	-10.7075
paket	-10.7076
las	-10.7076
▁motiv	-10.7077
▁bla	-10.7085
▁flecken	-10.7089
▁theoretische	-10.7098
wo	-10.7098
▁kommende	-10.7102
▁südwest	-10.7104
▁religions	-10.7105
ves	-10.7106
▁einziger	-10.7107
▁extra	-10.7114
▁siedlungen	-10.7119
▁hände	-10.712
▁verfolgung	-10.712
▁zukünftige	-10.7123
rang	-10.7126
▁deutliche	-10.7127
▁teilnehmen	-10.7128
▁etappe	-10.7128
▁fre	-10.713
▁os	-10.7132
▁konvent	-10.7135
▁qua	-10.7136
▁agrar	-10.7138
▁prozesse	-10.7139
▁uneingeschränkt	-10.7141
▁stolz	-10.7141
▁formuliert	-10.7141
▁perspektive	-10.7141
▁konsens	-10.7141
▁ulrich	-10.7141
▁logik	-10.7141
▁vorübergehend	-10.7141
▁neffe	-10.7141
▁bedrohung	-10.7142
▁gleichermaßen	-10.7142
▁ausgangspunkt	-10.7142
▁abgebrochen	-10.7143
▁herbert	-10.7143
▁vordergrund	-10.7143
▁kahl	-10.7145
▁unterscheidung	-10.7145
▁erlebt	-10.7145
▁schnabel	-10.7149
▁male	-10.715
▁froh	-10.715
▁prinz	-10.7151
▁fränkische	-10.7151
▁innovation	-10.7152
▁viermal	-10.7154
chor	-10.7154
▁soldat	-10.7155
ney	-10.7155
▁mindest	-10.7157
▁gebunden	-10.7158
▁posten	-10.7161
▁fakten	-10.7161
▁kom	-10.7162
▁verletzung	-10.7163
▁hagen	-10.7164
▁reiste	-10.7164
amerikanischen	-10.7164
▁marien	-10.7164
▁reg	-10.7165
über	-10.7166
▁vermögen	-10.7167
▁still	-10.7167
▁sammlungen	-10.7176
▁museen	-10.7181
▁gebe	-10.7184
▁sees	-10.7186
▁übrigens	-10.7189
▁fra	-10.719
▁felder	-10.7191
tat	-10.7194
tau	-10.7195
bert	-10.72
▁kürzer	-10.7201
▁option	-10.7206
▁bauen	-10.7208
▁schnelle	-10.7209
▁matt	-10.721
brechen	-10.7218
▁ray	-10.722
▁lernt	-10.722
▁streifen	-10.7223
gas	-10.7224
mut	-10.7225
sta	-10.7228
▁hinweis	-10.7229
dia	-10.7233
▁konkret	-10.7233
▁zogen	-10.7236
hersteller	-10.7239
zustand	-10.7242
▁corps	-10.7245
let	-10.7249
▁machten	-10.7255
liga	-10.7256
fahrer	-10.7257
▁wechseln	-10.7261
ji	-10.7265
▁hass	-10.7266
▁tieren	-10.7266
▁verbesserungen	-10.7272
▁pferd	-10.7273
▁spreche	-10.7277
▁alb	-10.7281
▁einig	-10.7282
▁wachsende	-10.7285
▁benannte	-10.7286
▁männern	-10.7289
▁hirsch	-10.7291
sgeschichte	-10.7296
▁jacob	-10.7298
▁wach	-10.73
▁min	-10.7301
▁errichtung	-10.7302
▁thron	-10.7302
▁volkswirtschaft	-10.7302
▁gänzlich	-10.7302
▁thailand	-10.7302
▁unterwegs	-10.7303
▁hugo	-10.7303
▁gemüse	-10.7305
▁vorgehensweise	-10.7305
▁abgesehen	-10.7307
▁unterhält	-10.7307
▁gesammelt	-10.7307
▁beschäftigen	-10.7307
▁gegenwart	-10.7307
▁norwegische	-10.7307
▁niedersachsen	-10.7307
▁deutet	-10.7308
wettbewerb	-10.7308
▁münzen	-10.7311
▁force	-10.7311
partner	-10.7317
stoffe	-10.7319
▁immerhin	-10.7322
▁lesung	-10.7325
▁vernünftig	-10.7325
tte	-10.7331
▁assistent	-10.7331
▁beratung	-10.7331
▁erfuhr	-10.7334
▁meyer	-10.7336
▁eingegangen	-10.734
port	-10.7344
▁wählte	-10.7348
▁konsequenzen	-10.7352
▁berufliche	-10.7355
▁mannheim	-10.7355
▁adam	-10.7356
▁erfolgreichste	-10.7357
▁motive	-10.7363
▁behauptet	-10.7364
dra	-10.7365
▁einwanderer	-10.7366
▁obst	-10.7367
▁merkmale	-10.7368
richtlinie	-10.7373
▁positionen	-10.7377
▁bogen	-10.7381
zel	-10.7381
fonds	-10.7382
verbot	-10.7387
▁ph	-10.739
▁gemein	-10.739
geben	-10.7392
▁reaktionen	-10.7392
mmel	-10.7396
▁golden	-10.7396
▁normalen	-10.74
nationalpark	-10.7402
▁königlich	-10.7417
ging	-10.7419
tter	-10.7422
▁dortmund	-10.7426
ura	-10.7428
weiler	-10.7428
▁älter	-10.7438
verlag	-10.7448
▁billig	-10.7454
graben	-10.746
gründen	-10.7463
test	-10.7466
▁entfernung	-10.7466
▁unregelmäßig	-10.7466
▁kupfer	-10.7466
▁wusste	-10.7467
▁barbara	-10.7469
▁bester	-10.7471
▁konkurrenz	-10.7471
▁momentan	-10.7471
▁klarheit	-10.7472
▁untergrund	-10.7473
gan	-10.7474
▁gitarrist	-10.7474
▁vizepräsident	-10.7475
▁schl	-10.7477
▁angeführt	-10.7477
▁geh	-10.7477
mond	-10.748
▁schlägt	-10.7481
ial	-10.7486
▁heeres	-10.7488
▁beitritt	-10.7489
▁verringert	-10.7491
▁kürze	-10.75
▁hammer	-10.7505
▁letzteres	-10.7506
▁fassen	-10.7508
▁hitler	-10.7509
des	-10.7509
▁gelassen	-10.7512
▁abstand	-10.7512
▁bewaldet	-10.7515
▁passt	-10.7517
schaltung	-10.752
▁kontinuierlich	-10.7529
▁nachts	-10.7532
▁ausgezeichnete	-10.7535
tage	-10.7541
▁versch	-10.7546
▁niederländisch	-10.7551
▁vereinigung	-10.7555
bund	-10.7555
▁neutral	-10.7558
ep	-10.7561
stadion	-10.7568
ipp	-10.757
▁fähigkeiten	-10.7572
rahmen	-10.7574
▁diejenige	-10.7577
▁mittelfeld	-10.7577
▁piloten	-10.7579
▁pianist	-10.7582
ges	-10.7586
val	-10.7586
▁profil	-10.7587
sur	-10.7589
wirkung	-10.7591
▁elbe	-10.7593
▁ehemal	-10.7596
werte	-10.7598
▁etablierte	-10.7599
▁vorder	-10.7606
bl	-10.7608
▁parks	-10.7611
▁fin	-10.7613
▁global	-10.7614
har	-10.7616
▁doppelt	-10.7623
▁tabak	-10.7628
ix	-10.7629
gezogen	-10.7629
▁kriminal	-10.7632
▁afghanistan	-10.7633
▁besichtigt	-10.7633
▁eduard	-10.7633
▁kanadische	-10.7633
▁scheitern	-10.7633
▁enthielt	-10.7633
▁promotion	-10.7633
▁fremdenverkehr	-10.7633
▁unsicher	-10.7633
▁regionalliga	-10.7634
▁ergriffen	-10.7634
▁verzeichnen	-10.7634
▁künstlern	-10.7634
▁frühjahr	-10.7635
▁unterschrieb	-10.7635
▁bundesstaat	-10.7636
▁fische	-10.7636
▁kunstgeschichte	-10.7639
▁präzise	-10.7641
▁heran	-10.7642
▁bekanntheit	-10.7642
▁passieren	-10.7642
▁prinzipien	-10.7643
▁medaillen	-10.7645
text	-10.7647
▁erinnerung	-10.7648
▁beobachtung	-10.7652
▁fusion	-10.7659
erei	-10.7663
maler	-10.7675
▁mischung	-10.7677
▁ansehen	-10.7678
▁technologie	-10.7679
▁überaus	-10.7681
▁restaurant	-10.7688
▁stau	-10.7688
▁joe	-10.7694
aufnahmen	-10.7695
programme	-10.7698
▁zwecke	-10.7701
fang	-10.7702
fr	-10.7706
▁albums	-10.7707
baum	-10.7713
▁mi	-10.7716
▁bedeutete	-10.7716
barkeit	-10.7719
cho	-10.772
▁obere	-10.7721
rock	-10.7723
daten	-10.7729
mark	-10.773
methode	-10.773
▁offizier	-10.7732
▁hard	-10.7733
▁lebenden	-10.7733
gunsten	-10.7738
büro	-10.7741
scher	-10.7742
▁norm	-10.7746
▁künstlerisch	-10.7747
▁ebenen	-10.7749
▁fernsehserien	-10.775
▁on	-10.7752
▁tee	-10.7757
▁prägte	-10.7757
gra	-10.7758
figur	-10.7759
▁gelernt	-10.776
zweig	-10.776
▁gespräch	-10.7765
▁trugen	-10.7771
▁experiment	-10.7772
▁gebräuchlich	-10.7772
turnier	-10.7775
▁platzierung	-10.7779
malerei	-10.778
becken	-10.7784
bauer	-10.7785
▁bemerkenswert	-10.7785
gebirge	-10.7788
▁könne	-10.7798
krise	-10.7801
▁asyl	-10.7802
▁beerdigt	-10.7802
▁anfänglich	-10.7802
▁keineswegs	-10.7802
▁fortgesetzt	-10.7802
▁gefasst	-10.7802
▁gedruckt	-10.7802
▁worauf	-10.7802
▁silbermedaille	-10.7803
▁regensburg	-10.7803
▁boston	-10.7803
srecht	-10.7804
▁standards	-10.7805
▁geraten	-10.7806
▁fruchtbar	-10.7807
▁ehepaar	-10.7808
▁blues	-10.781
▁joachim	-10.7812
▁gesellschaften	-10.7812
▁gerhard	-10.7814
▁sturm	-10.7814
zustellen	-10.7815
▁erwähnen	-10.7815
▁ausgelegt	-10.7816
minister	-10.7816
▁materialien	-10.7818
▁haltepunkt	-10.7819
mmer	-10.782
▁komplette	-10.782
▁kenntnisse	-10.783
tische	-10.7831
▁erstellt	-10.7833
▁verhältnisse	-10.7834
▁fühlt	-10.7836
▁eigenschaft	-10.7837
▁voraussetzungen	-10.7837
▁individuell	-10.7837
▁vorfahren	-10.7841
kor	-10.7842
▁bistums	-10.7846
▁schuldig	-10.7847
▁vers	-10.7847
▁volkes	-10.7849
kam	-10.7849
not	-10.785
herrschaft	-10.7853
▁leidenschaft	-10.7853
▁zweites	-10.7855
▁big	-10.7862
▁rosen	-10.7865
▁eingehalten	-10.7866
▁can	-10.7871
▁schwedisch	-10.7875
▁orientiert	-10.7877
aktion	-10.788
▁rose	-10.788
▁türkische	-10.7881
▁breiter	-10.7887
▁th	-10.7887
▁stlich	-10.7888
▁anschließen	-10.7889
▁liegende	-10.7896
▁reiter	-10.7896
stra	-10.7899
▁ohren	-10.7899
itt	-10.79
▁ausrichtung	-10.7905
▁ford	-10.7907
trop	-10.7907
▁vergangene	-10.7909
türme	-10.791
kloster	-10.7911
▁genre	-10.7912
vers	-10.7921
▁nationalpark	-10.7925
▁schlagzeug	-10.7926
▁kämpfe	-10.7927
äl	-10.7928
▁vorliegen	-10.7929
▁konzern	-10.7929
chef	-10.7932
▁parlamentarisch	-10.7932
▁freiwillige	-10.7938
▁rau	-10.794
ros	-10.7941
▁verpflichtungen	-10.7943
▁verfahrens	-10.7943
▁bistum	-10.795
▁fielen	-10.7962
liegenden	-10.7962
▁mineral	-10.7973
▁charlotte	-10.7975
▁abgeschafft	-10.7975
▁bedeutsam	-10.7975
▁hervorheben	-10.7975
▁texas	-10.7975
▁isoliert	-10.7975
▁verschwunden	-10.7975
▁epoche	-10.7975
▁cambridge	-10.7975
▁ernähren	-10.7975
▁agrarpolitik	-10.7976
cy	-10.7976
▁zurückzuführen	-10.7977
▁frühzeitig	-10.7977
▁begründung	-10.7977
▁briten	-10.7979
▁abgerissen	-10.7979
▁beibehalten	-10.798
▁hü	-10.798
▁repertoire	-10.7982
behörde	-10.7984
▁mangelnde	-10.7985
förmige	-10.7985
▁müssten	-10.7988
▁genehmigung	-10.7991
elli	-10.7992
▁umstände	-10.7995
▁umweltschutz	-10.7995
▁schuppen	-10.7998
▁heftige	-10.8005
illa	-10.8006
▁becken	-10.8007
▁benutzer	-10.8009
▁staatsanwalt	-10.8012
▁tropische	-10.8015
▁treu	-10.8018
▁albrecht	-10.8018
▁zähne	-10.8021
▁professionelle	-10.8023
geschichtliche	-10.8028
▁geschickt	-10.8028
kin	-10.8048
▁siedlungs	-10.8051
▁leichte	-10.8051
▁satelliten	-10.8052
nimmt	-10.8054
▁va	-10.8059
fähigkeit	-10.8066
▁schülern	-10.8067
▁stefan	-10.8067
zugeben	-10.8068
▁abschnitte	-10.8071
▁ständige	-10.8077
▁reifen	-10.8077
ux	-10.8083
▁kalt	-10.8083
fluss	-10.8084
ary	-10.8085
▁nachfolgende	-10.8086
literatur	-10.8086
ui	-10.8087
▁liefert	-10.8088
dr	-10.8098
ate	-10.81
▁solo	-10.8101
▁zunehmende	-10.8102
▁buches	-10.8103
▁landgericht	-10.8103
uf	-10.8107
born	-10.8108
mme	-10.8111
▁bekannter	-10.8116
▁solch	-10.8118
▁ali	-10.8119
▁weichen	-10.8122
▁schwert	-10.8125
▁konflikte	-10.8128
▁sohnes	-10.8132
▁kl	-10.8135
▁stationen	-10.8137
▁ci	-10.8141
▁hör	-10.8143
▁fair	-10.8143
▁geschäfte	-10.8144
▁dreißig	-10.8147
▁außergewöhnlich	-10.815
▁befindliche	-10.815
▁neuseeland	-10.815
▁society	-10.815
▁umgewandelt	-10.815
▁columbia	-10.815
▁madrid	-10.815
▁okres	-10.815
▁staubblätter	-10.815
▁samtgemeinde	-10.815
▁oldenburg	-10.8151
▁wendet	-10.8151
▁augenblick	-10.8152
▁sorte	-10.8153
▁tiefer	-10.8153
▁feststellen	-10.8153
▁lateinischen	-10.8155
▁vorträge	-10.8155
▁olympia	-10.8156
▁delegation	-10.8156
▁gerechtigkeit	-10.8157
▁illegale	-10.8159
▁besaßen	-10.816
▁enden	-10.8162
▁anbieter	-10.8164
▁labor	-10.8165
▁schiffs	-10.8166
▁güterverkehr	-10.8166
▁aufgewachsen	-10.8166
▁legende	-10.8167
▁sturz	-10.8168
▁manga	-10.8169
og	-10.8169
▁straßenbahn	-10.8171
▁gelesen	-10.8171
▁trennung	-10.8173
▁lü	-10.8174
▁roll	-10.8175
▁ehrenamtlich	-10.8176
▁betreut	-10.8179
▁vielfältige	-10.818
▁pokal	-10.8183
▁bürgerkrieg	-10.8185
sprinzip	-10.8185
svorschriften	-10.8186
äre	-10.8187
deutschen	-10.819
▁arabisch	-10.819
kla	-10.819
▁ausführlich	-10.8191
lü	-10.8191
▁stift	-10.8193
▁sun	-10.8193
▁ruder	-10.8194
▁schien	-10.8195
▁vorgeschlagene	-10.8195
▁brot	-10.8196
▁hor	-10.8202
schnitt	-10.8204
▁versorgung	-10.8205
▁helmut	-10.8208
▁bisschen	-10.8209
▁steigende	-10.8212
▁verfasser	-10.8212
▁ansätze	-10.8215
▁einheitlich	-10.8221
▁scheinen	-10.8221
▁pra	-10.8224
▁produktionen	-10.8225
▁nutzte	-10.8225
▁realistisch	-10.8227
▁endgültige	-10.8228
maschinen	-10.8229
ez	-10.823
▁seinerzeit	-10.8231
▁sound	-10.8234
▁verwendeten	-10.8239
▁jahrhunderten	-10.8242
▁formal	-10.8246
▁romanische	-10.8246
▁festen	-10.8249
steuer	-10.825
▁ergab	-10.8251
▁oberseite	-10.8254
▁interne	-10.8262
wirtschaftskrise	-10.8265
fehler	-10.8265
kommission	-10.8265
▁zuständige	-10.8269
▁primär	-10.8269
zone	-10.8271
▁schulden	-10.828
▁polnisch	-10.828
▁bischofs	-10.8281
▁erforscht	-10.8282
▁pol	-10.8283
▁oberflächen	-10.829
▁verkaufte	-10.8292
▁jahrhundert	-10.8297
▁einzig	-10.8299
▁app	-10.8299
▁steuern	-10.8303
▁oberst	-10.8305
tä	-10.8308
bringen	-10.8308
▁runden	-10.8312
litz	-10.8317
▁kap	-10.8317
▁verabschiedet	-10.8323
▁jury	-10.8326
pla	-10.8328
▁potsdam	-10.8329
▁bochum	-10.8329
▁enttäuscht	-10.8329
▁gesperrt	-10.8329
▁indirekt	-10.8329
▁korruption	-10.8329
▁wähler	-10.8329
▁überrascht	-10.8329
▁schwäbisch	-10.8329
▁fertiggestellt	-10.8329
▁aufrechterhalt	-10.8329
▁darmstadt	-10.833
▁erlauben	-10.833
▁darstellt	-10.8331
▁export	-10.8331
▁bibel	-10.8331
▁vertritt	-10.8334
▁inakzeptabel	-10.8334
▁job	-10.8336
▁sparkasse	-10.8339
▁pfarrei	-10.8339
▁mühlen	-10.834
▁flugplatz	-10.8341
▁krater	-10.8341
▁bestätigen	-10.8343
▁freundin	-10.8344
stab	-10.8344
▁übernahmen	-10.8345
▁reiche	-10.8346
▁katastrophe	-10.8346
▁begeistert	-10.8347
▁magazin	-10.8348
kü	-10.8349
▁langfristige	-10.8352
▁seitlich	-10.8353
▁trinkwasser	-10.8355
▁long	-10.8355
▁stärken	-10.8356
▁forscher	-10.8357
gehalten	-10.8357
▁para	-10.8358
▁kunststoff	-10.8359
▁sha	-10.8359
▁sicherte	-10.8359
▁ortschaften	-10.8361
▁einwohnerzahl	-10.8363
▁kategorien	-10.8365
stern	-10.8365
▁erfolgreichsten	-10.8367
schl	-10.8368
▁kabel	-10.8368
▁gesundheitliche	-10.8369
▁gegangen	-10.837
wei	-10.8372
freiheit	-10.8373
elemente	-10.8374
▁verpflichtung	-10.8374
▁nachricht	-10.8377
▁last	-10.8378
▁j	-10.8383
▁gestalten	-10.8386
stoß	-10.8387
vis	-10.8388
▁konstruktive	-10.8392
äu	-10.8392
▁latein	-10.8393
▁geistes	-10.8394
▁synonym	-10.8396
trainer	-10.8402
▁sonstige	-10.8404
▁messe	-10.8406
▁kolonial	-10.8409
▁mat	-10.841
viertel	-10.8416
▁einsätze	-10.8422
bre	-10.8429
▁kol	-10.8435
▁dan	-10.8441
säure	-10.8441
▁plätze	-10.845
▁reihen	-10.845
▁bal	-10.8451
ug	-10.8453
▁bucht	-10.8455
▁schicht	-10.8456
▁nu	-10.8463
maß	-10.8466
▁at	-10.8469
▁sechsten	-10.847
▁konzentrierte	-10.8471
▁gor	-10.8473
▁ah	-10.8473
teile	-10.8484
▁gelblich	-10.8494
▁orthodoxe	-10.8495
▁ernsthaft	-10.8496
motor	-10.8501
▁beobachter	-10.8502
▁graben	-10.8506
▁entspringt	-10.8511
▁erleichtert	-10.8511
▁produzieren	-10.8511
▁verwachsen	-10.8511
▁gehabt	-10.8511
▁beendig	-10.8511
▁überprüft	-10.8511
▁nachmittag	-10.8511
ball	-10.8511
▁leopold	-10.8511
▁stockholm	-10.8511
▁kronblätter	-10.8511
▁leichtathletik	-10.8511
▁virginia	-10.8511
▁inhaftiert	-10.8511
▁verdienen	-10.8511
▁globalisierung	-10.8511
▁bill	-10.8512
▁dietrich	-10.8516
▁nordafrika	-10.8517
▁bernahme	-10.8518
▁davis	-10.8518
tritt	-10.8518
▁vision	-10.852
ado	-10.852
▁sex	-10.852
▁group	-10.8521
▁pl	-10.8523
▁angemessen	-10.8524
▁mühl	-10.8526
▁begründete	-10.8527
▁umzusetzen	-10.8527
▁bloß	-10.8528
▁grundlagen	-10.8529
▁sol	-10.8529
▁vorgestellt	-10.8531
▁überlegen	-10.8534
▁universitäts	-10.8535
scha	-10.8538
▁färbung	-10.854
national	-10.8543
▁var	-10.8547
▁pfeiler	-10.8549
decken	-10.855
▁jäger	-10.8552
▁winkel	-10.8554
wal	-10.8556
▁sichern	-10.8563
ersdorf	-10.8564
▁betreffen	-10.8566
sozialistische	-10.8566
▁lehnt	-10.8573
▁kara	-10.858
▁berufung	-10.8583
▁spezialisiert	-10.8584
▁greifen	-10.8591
formen	-10.8599
sbedingungen	-10.8602
▁sperr	-10.8605
▁busse	-10.8607
enstein	-10.8607
▁weiler	-10.8609
▁schmal	-10.8611
reisen	-10.8611
hol	-10.8611
sgemeinschaft	-10.8613
lass	-10.8615
situation	-10.8616
▁sl	-10.8617
sehen	-10.8618
produkte	-10.8619
▁eck	-10.8627
▁zugrunde	-10.8632
feuer	-10.8632
▁schulz	-10.8633
erin	-10.8635
▁bezeichnungen	-10.8638
▁erwachsenen	-10.8638
▁kontroll	-10.8639
▁israelische	-10.864
schreibung	-10.864
spannung	-10.8645
erung	-10.8646
▁programms	-10.865
▁dauerte	-10.8655
▁sterreichische	-10.8658
▁verb	-10.8661
lä	-10.8662
▁ozean	-10.8663
▁av	-10.867
zeitung	-10.8672
gleich	-10.8674
gestellt	-10.8674
▁nutzt	-10.8681
ons	-10.8683
▁montag	-10.8687
▁starben	-10.869
▁glaubens	-10.869
▁folter	-10.8695
▁erwähnung	-10.8696
▁formulierung	-10.8696
▁nächstgelegene	-10.8696
▁präsidium	-10.8696
▁restauriert	-10.8696
▁unterirdisch	-10.8696
▁verschwinden	-10.8696
▁vereinfacht	-10.8696
▁verändern	-10.8696
▁bamberg	-10.8696
▁cousin	-10.8696
▁installiert	-10.8696
▁hervorgehoben	-10.8696
▁siedler	-10.8696
sehenswürdigkeit	-10.8696
▁ausscheiden	-10.8696
▁sammeln	-10.8696
▁schlosses	-10.8697
verbände	-10.8697
▁bekämpfen	-10.8697
▁freuen	-10.8698
▁knie	-10.8698
▁erlangen	-10.87
▁kostet	-10.8702
▁christ	-10.8702
schluss	-10.8702
▁konservatorium	-10.8704
▁aufträge	-10.8705
▁ortsname	-10.8705
▁hinweg	-10.8707
▁sicherung	-10.8707
▁ferien	-10.8708
▁höhepunkt	-10.8709
▁digital	-10.871
▁sterreichs	-10.8712
▁betreiber	-10.8713
▁viertelfinale	-10.8717
▁verstärkte	-10.8719
▁vermieden	-10.872
▁verhältnissen	-10.8722
auer	-10.8726
▁kirch	-10.8728
▁sorten	-10.873
▁einander	-10.873
▁höfe	-10.8735
▁baden	-10.8736
▁solang	-10.8737
▁areal	-10.8739
▁stra	-10.8739
▁bevölkerungs	-10.874
hauses	-10.8741
▁route	-10.8742
▁moor	-10.8744
▁blaue	-10.8749
▁wem	-10.8751
▁vollständige	-10.8751
tre	-10.8752
▁verständlich	-10.8753
▁vertretung	-10.8753
▁bisherige	-10.8755
▁lin	-10.8756
▁brigen	-10.8756
▁sonntag	-10.8757
▁wälder	-10.8759
▁aufstand	-10.8764
lösung	-10.8772
▁vorliegende	-10.8772
▁schriftlich	-10.8773
▁bezahlt	-10.8774
▁luther	-10.8778
▁mike	-10.8779
wertung	-10.8779
stoff	-10.878
▁inhalte	-10.8782
▁steuerung	-10.8785
kurs	-10.8787
▁gespräche	-10.8788
▁kommerziell	-10.8796
uk	-10.8799
laufbahn	-10.8805
▁trier	-10.8806
▁stämme	-10.881
▁zellen	-10.8815
▁nachhaltig	-10.8815
begriff	-10.8819
partei	-10.882
fried	-10.8822
spur	-10.8822
▁fahrrad	-10.8822
ruf	-10.8828
▁aufrecht	-10.8829
ausgabe	-10.8829
▁training	-10.883
▁instituts	-10.883
spitze	-10.8831
▁web	-10.8835
ast	-10.8838
▁hochschulen	-10.8839
mont	-10.8839
▁aufsicht	-10.8839
▁argumente	-10.8843
▁wechselnde	-10.8844
▁versorgt	-10.8848
pflicht	-10.885
▁durchschnitt	-10.8852
ona	-10.8853
▁sin	-10.8854
▁nachweis	-10.8854
▁vermittelt	-10.8857
linien	-10.8859
▁heftig	-10.8861
▁geistige	-10.8863
räte	-10.8867
kräfte	-10.8873
zeug	-10.8876
▁abstammung	-10.8884
▁begrüßt	-10.8884
▁geäußert	-10.8884
▁hilfreich	-10.8884
▁popularität	-10.8884
▁arnold	-10.8884
▁osmanische	-10.8884
▁durchgesetzt	-10.8885
▁effizienz	-10.8885
▁angetrieben	-10.8885
▁wilson	-10.8886
▁abgelöst	-10.8886
▁durchfließt	-10.8887
▁innenraum	-10.8887
möglichkeiten	-10.8887
▁niedersächsisch	-10.8889
▁süß	-10.8891
▁regierungszeit	-10.8892
▁rektor	-10.8893
▁maschinenbau	-10.8893
▁rötlich	-10.8894
▁bedeutend	-10.8896
▁besuchen	-10.8898
▁michel	-10.8898
▁gewachsen	-10.8902
▁anklage	-10.8904
▁zulassung	-10.8906
▁pri	-10.8907
gebiete	-10.8909
▁blue	-10.8911
▁büchern	-10.8912
▁böden	-10.8914
▁versteckt	-10.8917
▁überzeugen	-10.8922
eth	-10.8924
▁bestände	-10.8928
▁dampf	-10.893
▁senator	-10.893
wil	-10.893
▁house	-10.8931
▁schuss	-10.8932
▁gärten	-10.8933
▁gelbe	-10.8933
▁beschloss	-10.8934
▁suchte	-10.8936
▁fans	-10.8938
egg	-10.8946
▁hauptrollen	-10.8946
sgebiet	-10.8946
wirk	-10.8949
zusetzen	-10.895
▁detail	-10.8954
▁standorte	-10.8954
▁gebeten	-10.8954
▁angel	-10.8958
line	-10.8959
▁rauch	-10.896
▁trennt	-10.8964
▁gelangt	-10.8965
▁sel	-10.8965
▁ren	-10.8967
▁it	-10.8968
▁geschlechter	-10.8969
▁warschau	-10.8969
▁rohr	-10.8973
▁mono	-10.8975
▁selbständig	-10.8978
▁gebäudes	-10.8978
▁porträts	-10.898
▁fan	-10.898
smitglieder	-10.8983
▁open	-10.8984
▁jugendlichen	-10.8984
projekte	-10.8985
▁theaterstücke	-10.8988
kommt	-10.8996
▁demokratisch	-10.8997
gast	-10.8999
basis	-10.9005
▁errang	-10.9006
kunde	-10.9011
technologie	-10.9012
▁erfolgreicher	-10.9015
▁überarbeitet	-10.9025
▁britis	-10.9027
▁mitten	-10.9028
cken	-10.9033
▁aufeinander	-10.9036
uhr	-10.9038
net	-10.9039
▁aufwand	-10.9042
arzt	-10.9044
hoff	-10.9051
ologische	-10.9057
ida	-10.906
▁sammel	-10.9062
pan	-10.9062
zubringen	-10.9063
▁terror	-10.9067
▁verdienste	-10.9068
▁blei	-10.9069
rollen	-10.907
legung	-10.9073
▁bürgerliche	-10.9076
katholische	-10.9077
▁januar	-10.9077
▁koordinierung	-10.9077
▁untereinander	-10.9077
▁ablehnung	-10.9077
▁gefeiert	-10.9077
▁gescheitert	-10.9077
▁konzipiert	-10.9077
▁senkrecht	-10.9077
▁westfalen	-10.9077
▁arthur	-10.9077
▁bewertet	-10.9077
▁plenum	-10.9077
▁balkan	-10.9077
▁syrien	-10.9077
▁modernisierung	-10.9077
▁dienstgrad	-10.9078
▁victoria	-10.9078
▁gesucht	-10.9079
▁wett	-10.908
▁langer	-10.9081
▁aufwendig	-10.9082
▁wohlstand	-10.9083
▁beteiligte	-10.9085
▁schauen	-10.9085
▁niederlassung	-10.9088
▁gesetzliche	-10.909
▁vorläufer	-10.9091
▁blüte	-10.9092
▁melodie	-10.9093
▁patron	-10.9093
▁deck	-10.9094
▁vieh	-10.9094
steig	-10.9094
▁eingenommen	-10.9096
▁werkstatt	-10.9097
▁gotische	-10.9098
▁forum	-10.9099
▁gesetzes	-10.9099
▁bewusstsein	-10.91
lung	-10.9103
▁burganlage	-10.9103
▁debüt	-10.9105
▁anstieg	-10.9106
▁ehrenbürger	-10.9109
▁wörter	-10.9109
management	-10.9111
▁nordost	-10.9111
▁steve	-10.9113
▁transportiert	-10.9114
▁ausmaß	-10.9116
spräsident	-10.9118
▁eure	-10.912
▁vorrunde	-10.9121
tner	-10.9122
▁abwehr	-10.9124
▁hütte	-10.9127
ellen	-10.9127
▁eva	-10.9129
▁debatten	-10.9133
▁bomben	-10.9136
▁einkommen	-10.9138
▁summe	-10.9139
▁verstorbenen	-10.9139
losigkeit	-10.9146
▁studiert	-10.9151
▁cal	-10.9157
▁erfindung	-10.9158
▁stab	-10.9164
gekommen	-10.9176
jew	-10.9179
▁förder	-10.9187
samt	-10.919
▁umbau	-10.9192
▁via	-10.9195
▁liegenden	-10.9196
▁sh	-10.9201
therapie	-10.9202
▁entschlossen	-10.9203
ance	-10.9205
▁kehrt	-10.9208
▁sorgfältig	-10.9212
▁berühmte	-10.9213
spor	-10.9218
▁fund	-10.9218
▁kommunal	-10.9219
▁hä	-10.9221
mangel	-10.9228
▁geschichts	-10.9229
▁richtete	-10.923
▁vorschlägen	-10.9234
bereiche	-10.9242
az	-10.9243
▁metal	-10.9243
▁schienen	-10.9249
▁beliebtes	-10.925
pri	-10.9251
▁back	-10.9252
krankheit	-10.9253
▁malte	-10.9257
▁angemessene	-10.9258
▁geistliche	-10.9268
▁kollegin	-10.927
▁beachten	-10.9271
▁zulässig	-10.9271
▁abseits	-10.9273
▁empfohlen	-10.9273
▁innsbruck	-10.9273
▁navy	-10.9273
▁relevant	-10.9273
▁verknüpft	-10.9273
▁vertraut	-10.9273
▁zypern	-10.9273
▁öfter	-10.9273
▁schräg	-10.9273
▁zurückkehren	-10.9273
▁vermehrt	-10.9273
▁evolution	-10.9273
▁gespannt	-10.9273
▁revision	-10.9273
▁aussprechen	-10.9273
▁entwarf	-10.9273
▁zahn	-10.9273
▁nikolaus	-10.9273
▁hunger	-10.9274
▁bereinkommen	-10.9274
▁nachbarschaft	-10.9274
▁harry	-10.9275
▁fortsetzen	-10.9275
▁ägyptische	-10.9276
▁prinzipiell	-10.9276
▁sprint	-10.9279
▁interpretiert	-10.9279
▁überlassen	-10.9283
▁vegetation	-10.9284
platten	-10.9284
planung	-10.9284
win	-10.9286
▁öffnen	-10.9288
▁linz	-10.9289
einheit	-10.929
▁meistertitel	-10.929
roman	-10.9291
▁errichtete	-10.9292
konstruktion	-10.9292
isieren	-10.9293
▁belastung	-10.9294
▁gletscher	-10.9294
▁herausragende	-10.9294
▁brauerei	-10.9295
▁aufgegriffen	-10.9298
▁freiwilligen	-10.9299
mpf	-10.9299
magazin	-10.9299
▁aufzunehmen	-10.9299
▁optische	-10.93
▁eintreten	-10.93
kal	-10.9304
▁flüchtlinge	-10.9304
▁schriftliche	-10.9304
▁flotte	-10.9306
▁zwingend	-10.9309
▁statue	-10.9311
ras	-10.9311
▁center	-10.9313
▁kampagne	-10.9315
ille	-10.9315
▁ruinen	-10.9316
▁berge	-10.9317
▁verteilung	-10.9318
▁loch	-10.932
dt	-10.9321
ober	-10.9321
▁diplomatische	-10.9322
▁gefühl	-10.9323
▁antiken	-10.9323
ran	-10.9324
▁kenn	-10.9329
▁erkenntnisse	-10.9329
▁überlebte	-10.9331
▁kle	-10.9334
▁männlichen	-10.9339
▁pilger	-10.934
▁ausgeprägte	-10.9341
▁kolonie	-10.9341
▁free	-10.9344
▁goethe	-10.9347
▁kaufen	-10.9351
▁darsteller	-10.9353
wirtschaftszweig	-10.9353
lach	-10.9353
rd	-10.9361
▁kranken	-10.9364
▁korps	-10.9364
▁enkel	-10.9365
eben	-10.9367
▁promovierte	-10.9368
▁fotos	-10.9384
▁stimm	-10.9389
schild	-10.939
▁symptome	-10.9391
▁logo	-10.9393
▁eröffnete	-10.9396
▁stilistisch	-10.9398
▁kal	-10.94
▁gross	-10.9401
versicherung	-10.9404
luft	-10.9406
▁rio	-10.9408
streifen	-10.9411
unter	-10.9411
keiten	-10.9412
▁gefangenen	-10.9413
zimmer	-10.9415
▁epi	-10.9416
▁gewinner	-10.9417
rechtliche	-10.9417
▁helden	-10.9419
dies	-10.9424
ull	-10.9424
▁genf	-10.9427
▁signale	-10.9429
▁schwerer	-10.943
▁gewerkschaft	-10.9431
▁verwandten	-10.9432
▁sank	-10.9433
tar	-10.9434
▁erhaltene	-10.9436
karte	-10.9445
▁phasen	-10.9454
bri	-10.9458
ala	-10.9458
▁ak	-10.946
▁schichten	-10.9463
▁geschlechts	-10.9471
▁philadelphia	-10.9473
▁zueinander	-10.9473
▁beschleunigt	-10.9473
▁bischöfe	-10.9473
▁rief	-10.9473
▁east	-10.9473
▁line	-10.9473
▁infolgedessen	-10.9474
▁gesungen	-10.9474
▁egal	-10.9475
▁variieren	-10.9476
▁liberalisierung	-10.9477
▁scott	-10.9477
▁website	-10.9477
▁außenpolitik	-10.9478
waren	-10.9479
▁zusammensetzung	-10.9481
▁abgehalten	-10.9486
▁soziologie	-10.9488
▁komplexe	-10.9489
ska	-10.949
▁künstlich	-10.9491
▁anzunehmen	-10.9494
▁stausee	-10.9495
▁gezählt	-10.9496
leistungen	-10.9496
▁geschwistern	-10.9499
▁bakterien	-10.9507
▁erfährt	-10.9509
▁autos	-10.9509
▁lor	-10.9513
▁werfen	-10.9517
▁vorstellungen	-10.9517
tür	-10.9519
▁bauer	-10.9519
geld	-10.952
▁freunden	-10.9523
▁dienstleistungs	-10.9527
▁million	-10.9529
▁fühlen	-10.953
▁brachten	-10.953
▁bü	-10.9533
gegeben	-10.9542
denken	-10.9544
dienste	-10.9546
▁nachfolgend	-10.9551
▁seid	-10.9551
▁türkischen	-10.9552
▁durften	-10.9557
städte	-10.956
▁sir	-10.9581
ios	-10.9586
▁chris	-10.9587
mauern	-10.9588
▁anne	-10.9589
▁willi	-10.959
verbandes	-10.9591
ob	-10.9592
▁scharf	-10.9595
▁col	-10.9598
▁mars	-10.96
gewerbe	-10.961
▁neuzeit	-10.9612
▁segel	-10.9618
igt	-10.9618
▁gewiss	-10.9618
▁eingetragen	-10.9619
▁stufen	-10.9619
▁kreise	-10.9621
▁unterliegen	-10.9626
▁final	-10.9628
▁hay	-10.9629
▁grafik	-10.9633
▁individuelle	-10.9635
▁marken	-10.9637
och	-10.9637
▁teuer	-10.9637
förderung	-10.9638
▁vorhandene	-10.9641
▁perfekt	-10.9643
▁krankheiten	-10.9643
teilung	-10.9644
istisch	-10.9647
graph	-10.9651
▁müll	-10.9653
▁law	-10.9658
▁aufenthalt	-10.9659
phi	-10.9662
▁erwähnte	-10.9664
▁stärkere	-10.9667
sc	-10.9676
out	-10.9677
▁kelch	-10.9677
▁witwe	-10.9677
▁bekämpft	-10.9677
▁bestraft	-10.9677
▁gegeneinander	-10.9677
▁gestattet	-10.9677
▁ignoriert	-10.9677
▁serbien	-10.9677
▁töten	-10.9677
▁verdankt	-10.9677
▁jemals	-10.9677
▁versprechen	-10.9677
▁hölzerne	-10.9677
▁oscar	-10.9677
▁francisco	-10.9677
▁estland	-10.9678
▁alex	-10.9679
▁lehen	-10.9679
▁synagoge	-10.9682
▁ausgelöst	-10.9682
▁baby	-10.9682
▁win	-10.9683
▁überwacht	-10.9684
tischen	-10.9685
▁trend	-10.9685
▁überraschend	-10.9685
▁gärtner	-10.9686
▁jones	-10.9687
nehmen	-10.9687
▁keramik	-10.969
▁anstelle	-10.969
jan	-10.969
▁zeichner	-10.9691
▁aufgehoben	-10.9691
rück	-10.9692
▁locker	-10.9694
off	-10.9694
▁steigen	-10.9697
▁slawische	-10.9698
zig	-10.9699
▁käse	-10.97
▁dauern	-10.9707
▁kau	-10.971
▁sahen	-10.9719
▁küche	-10.9719
▁mehrheitlich	-10.9719
▁argument	-10.9722
▁eingebracht	-10.9724
▁vorstellen	-10.9728
▁laden	-10.973
angebot	-10.9731
▁umso	-10.9731
tour	-10.9731
▁fo	-10.9732
▁tournee	-10.9738
▁schwieriger	-10.974
▁ly	-10.9741
▁fremd	-10.9742
staaten	-10.9743
machen	-10.9744
▁größen	-10.9748
▁versicherungs	-10.9748
▁hey	-10.9748
▁produzenten	-10.9749
durchschnittlich	-10.9751
▁lieferte	-10.9752
▁vergangen	-10.9754
▁bruno	-10.9762
▁bezirke	-10.9763
▁oster	-10.9765
vier	-10.9768
▁pur	-10.9769
▁pont	-10.9769
bürgermeister	-10.9771
▁räumen	-10.9776
ogen	-10.9777
zw	-10.9781
armee	-10.9782
hang	-10.9783
▁behörde	-10.9783
▁zell	-10.9784
losen	-10.9784
▁gegenwärtige	-10.9787
schließlich	-10.9787
wiesen	-10.9787
▁old	-10.979
▁treppen	-10.9793
▁lud	-10.9795
sprung	-10.9797
▁beides	-10.9797
▁boote	-10.9798
▁ausgrabung	-10.9799
▁heiraten	-10.98
▁einhaltung	-10.9801
▁mill	-10.9806
hauptstadt	-10.9807
reiche	-10.9807
▁gesetzlich	-10.9811
geräte	-10.9812
vertretung	-10.9821
▁maximal	-10.9823
▁blind	-10.9831
▁nützlich	-10.9832
▁ersetzen	-10.9833
▁publiziert	-10.9833
nah	-10.9835
▁mitgliedstaat	-10.9837
est	-10.984
▁höhlen	-10.984
▁barcelona	-10.9842
▁christlich	-10.9842
▁rö	-10.9845
fähig	-10.985
▁distrikt	-10.9853
maschine	-10.9855
▁lieben	-10.9862
▁strafe	-10.9864
ehr	-10.9866
gewinnung	-10.9867
▁erhaltung	-10.9868
▁vereinbart	-10.9873
trat	-10.9877
▁gewährt	-10.9879
▁bände	-10.9881
▁disziplinen	-10.9882
▁witt	-10.9883
▁ballett	-10.9883
▁spannung	-10.9883
▁beabsichtigt	-10.9885
▁company	-10.9885
▁football	-10.9885
▁genügt	-10.9885
▁gerettet	-10.9885
▁inspiriert	-10.9885
▁risiken	-10.9885
▁thüringen	-10.9885
▁widmen	-10.9885
▁vereinfachung	-10.9885
▁unverzüglich	-10.9885
▁abstrakte	-10.9885
▁drastisch	-10.9885
ziel	-10.9885
▁absurd	-10.9885
▁geformt	-10.9885
▁götter	-10.9885
▁privatbesitz	-10.9886
▁entscheidet	-10.9886
▁gliedert	-10.9886
▁adelsfamilie	-10.9886
▁wehrmacht	-10.9886
▁obergeschoss	-10.9886
▁betreten	-10.9887
▁vornamen	-10.9888
▁verwandtschaft	-10.9889
▁klöster	-10.9889
fanterieregiment	-10.9889
ausstellung	-10.9889
verarbeitung	-10.989
▁abgebildet	-10.989
▁landschaften	-10.9891
▁horizontal	-10.9892
▁orientierung	-10.9892
hain	-10.9894
▁em	-10.9896
▁prodi	-10.99
▁hielten	-10.99
▁betrachtung	-10.9902
fahrzeuge	-10.9902
▁sandstein	-10.9903
▁erfordern	-10.9907
▁schall	-10.9908
▁verschoben	-10.9909
▁welch	-10.9909
▁dis	-10.9912
▁freundlich	-10.9913
▁luftwaffe	-10.9915
▁streitkräfte	-10.9916
▁lord	-10.9916
▁duke	-10.992
▁camp	-10.9921
▁grundsätze	-10.9922
▁reife	-10.9923
▁zielen	-10.9923
▁zivile	-10.9924
▁napoleon	-10.9926
▁vereinen	-10.9927
ergebnisse	-10.9928
▁lat	-10.9928
▁mathematische	-10.9929
liches	-10.9929
▁lust	-10.993
▁stadtrat	-10.9931
▁georgien	-10.9932
▁nachbar	-10.9935
▁miller	-10.9936
▁disziplin	-10.9938
istik	-10.9943
▁mitgliedschaft	-10.9944
ight	-10.9946
▁hein	-10.9948
▁verlieh	-10.995
air	-10.9952
▁freitag	-10.9954
sicht	-10.9954
▁ker	-10.9971
wind	-10.9971
kern	-10.9971
▁herzogtum	-10.9974
▁tank	-10.9974
▁erkannte	-10.9976
▁philosophische	-10.9983
lein	-11.0002
▁beschäftigungs	-11.0007
▁absolute	-11.0008
▁trainiert	-11.0008
▁lebenslange	-11.001
▁gewünschte	-11.0011
▁niedrig	-11.0011
steht	-11.0012
▁irische	-11.0016
▁umgangssprach	-11.0018
▁ass	-11.002
dd	-11.002
gewicht	-11.0021
▁fünfte	-11.0022
▁führungs	-11.0022
ckel	-11.0022
chs	-11.0022
▁tro	-11.0026
division	-11.0028
▁shi	-11.0028
hofen	-11.0031
▁luftfahrt	-11.0034
▁militärisch	-11.0035
wissenschaftler	-11.0041
▁kommunikations	-11.0042
gelb	-11.0044
▁wanderwege	-11.0045
▁zoo	-11.0045
fisch	-11.0049
▁feind	-11.0049
▁chancen	-11.0051
schi	-11.0061
▁ap	-11.0063
isse	-11.0064
▁hel	-11.007
▁künftige	-11.0074
▁rache	-11.0075
▁erkenntnis	-11.0077
▁moore	-11.0078
▁verlags	-11.0078
aufnahme	-11.0079
▁einzelner	-11.0086
▁trieb	-11.0086
▁missbrauch	-11.0088
▁korn	-11.009
ufer	-11.0091
shausen	-11.0094
▁ziegel	-11.0096
▁testament	-11.0098
▁barroso	-11.0098
▁diözese	-11.0098
▁durchquert	-11.0098
▁erneuerbare	-11.0098
▁hingerichtet	-11.0098
▁kardinal	-11.0098
▁historic	-11.0098
▁bewirkt	-11.0098
▁taiwan	-11.0098
▁todesstrafe	-11.0098
▁unzählige	-11.0098
▁heilbronn	-11.0098
▁dublin	-11.0098
▁vorzeitig	-11.0098
▁garantiert	-11.0098
▁gehör	-11.0099
▁ruhestätte	-11.0099
▁profitieren	-11.0099
▁kurzgeschichten	-11.01
▁eigenständig	-11.01
▁minimal	-11.01
▁gegenseitige	-11.0101
▁beschlüsse	-11.0101
▁christus	-11.0102
▁young	-11.0102
▁arbeitsplatz	-11.0102
▁namentlich	-11.0103
pin	-11.0103
▁sprachraum	-11.0103
sarbeit	-11.0105
▁grundrechte	-11.0107
▁wohnsitz	-11.0108
▁lebende	-11.0108
artig	-11.0111
▁jahrelang	-11.0112
orchester	-11.0112
ward	-11.0112
▁einschätzung	-11.0114
▁sterne	-11.0116
▁gelder	-11.0116
▁entscheidender	-11.0116
▁institutionelle	-11.0118
▁hinzufügen	-11.0119
▁neustadt	-11.0122
▁wohnhaus	-11.0122
quellen	-11.0125
▁kleidung	-11.0125
▁stürmer	-11.0127
ew	-11.013
▁leiche	-11.0135
▁stabil	-11.0137
laufen	-11.0138
sson	-11.0141
niederösterreich	-11.0142
▁tr	-11.0142
▁qualifiziert	-11.0143
bot	-11.0146
▁ried	-11.0146
▁zugeschrieben	-11.0148
▁abteilungen	-11.0149
▁heimatland	-11.0149
▁einstige	-11.015
hör	-11.0153
ima	-11.0155
▁nebenrollen	-11.016
macher	-11.0163
ath	-11.0165
▁abt	-11.0167
▁planeten	-11.017
▁besch	-11.0171
▁farm	-11.0171
paar	-11.0172
▁dozent	-11.0173
▁experten	-11.0174
▁einteilung	-11.0176
musiker	-11.0182
▁einzug	-11.0182
▁leser	-11.0191
länge	-11.0194
ora	-11.0194
gerät	-11.0194
▁pilot	-11.0196
▁erwiesen	-11.0198
▁bou	-11.0201
▁verschiedenste	-11.0203
▁glaubt	-11.0206
con	-11.0212
▁lyrik	-11.0216
▁hunderte	-11.0216
bezirk	-11.0217
▁fri	-11.0217
▁päpstliche	-11.0219
▁mas	-11.0219
▁bersetzungen	-11.022
wig	-11.0222
▁ökologische	-11.0226
▁mä	-11.0227
▁widmet	-11.0227
▁tests	-11.0231
▁bade	-11.0234
▁resultat	-11.0237
▁mache	-11.025
▁heimspiele	-11.0251
konzept	-11.0251
beginn	-11.0252
▁qu	-11.0252
▁spannungen	-11.0252
einsatz	-11.0255
dass	-11.0255
sarbeiten	-11.0266
hütte	-11.0267
▁laufenden	-11.027
▁umfassen	-11.0271
zucht	-11.0274
dar	-11.0277
▁gre	-11.0279
▁gültig	-11.028
▁dunkle	-11.0281
▁mini	-11.0285
▁organische	-11.0286
▁frankreichs	-11.029
sinn	-11.0293
album	-11.0293
▁student	-11.0294
stamm	-11.0295
tho	-11.0296
stellt	-11.0299
rede	-11.0301
▁aufsichtsrat	-11.0303
▁love	-11.0305
▁konservativen	-11.0308
▁hiermit	-11.0312
▁besorgnis	-11.0315
▁algerien	-11.0315
▁februar	-11.0315
▁genehmigt	-11.0315
▁jugoslawien	-11.0315
▁koblenz	-11.0315
▁lebensunterhalt	-11.0315
▁marokko	-11.0315
▁matthias	-11.0315
▁petition	-11.0315
▁renommierte	-11.0315
▁tokio	-11.0315
▁bearbeitet	-11.0315
▁verbrannt	-11.0315
▁marmor	-11.0316
▁verwechseln	-11.0316
▁koalition	-11.0316
▁erdgeschoss	-11.0316
▁teufel	-11.0316
▁creek	-11.0316
▁modernisiert	-11.0316
▁geburtsort	-11.0317
▁stammspieler	-11.0317
▁berlieferung	-11.0317
▁arbeitsmarkt	-11.0318
▁arzneimittel	-11.0319
▁einzu	-11.032
gehalt	-11.032
▁eugen	-11.032
▁schacht	-11.0321
▁landesliste	-11.0321
▁normale	-11.0322
bein	-11.0322
▁grabstätte	-11.0323
mauer	-11.0324
▁mailand	-11.0325
▁glänzend	-11.0328
▁beliebig	-11.0331
▁brasilianische	-11.0332
alen	-11.0332
akt	-11.0334
▁zeitgenossen	-11.0337
▁maul	-11.0338
▁händen	-11.034
präsidenten	-11.0341
▁eingeladen	-11.0342
▁bemüht	-11.0342
▁richtungen	-11.0344
erzeugung	-11.0344
stücke	-11.0346
herr	-11.0347
läufe	-11.0349
hart	-11.035
▁physikalische	-11.0351
▁beauftragt	-11.0351
▁kontrollen	-11.0352
▁dorthin	-11.0353
▁strenge	-11.0359
▁nachdenken	-11.0359
▁organe	-11.0362
▁ußerungen	-11.0363
▁geo	-11.0366
▁sach	-11.037
▁kritische	-11.0372
burger	-11.0373
ohr	-11.0375
tzen	-11.0376
grad	-11.0376
▁steckt	-11.038
▁cr	-11.0382
▁eventuell	-11.0385
▁char	-11.0386
▁kaufmanns	-11.0386
▁wood	-11.0387
▁aufzu	-11.0388
▁game	-11.0388
▁angeklagt	-11.0388
▁gelehrt	-11.0389
autor	-11.039
war	-11.0391
▁vorname	-11.0391
▁anwesen	-11.0393
▁türen	-11.0393
▁flüssigkeit	-11.0394
einheiten	-11.0394
▁schwächen	-11.0402
erfolg	-11.0404
▁dö	-11.0406
▁welle	-11.0408
stag	-11.041
▁edward	-11.0413
▁technischer	-11.0415
▁touristische	-11.0419
organ	-11.042
▁emil	-11.0422
▁rinde	-11.0423
▁großzügig	-11.0424
ata	-11.0424
▁rost	-11.0425
▁alternativen	-11.0435
olo	-11.044
way	-11.0447
▁strahlen	-11.0449
▁temperaturen	-11.045
▁wahre	-11.0451
bon	-11.0452
▁ganzes	-11.0453
▁verhandlungs	-11.0455
▁raus	-11.0458
▁rettungs	-11.046
▁trennte	-11.046
▁komplex	-11.0461
sprogramm	-11.0461
vorsitzender	-11.0462
▁verbreitete	-11.0466
kritik	-11.0469
wälder	-11.0469
▁tiefen	-11.047
ingenieur	-11.0471
haar	-11.0471
revolution	-11.0474
union	-11.0477
produkt	-11.0477
▁bung	-11.0477
▁tan	-11.048
▁vierzehn	-11.0483
boden	-11.0485
▁vorlage	-11.0485
dol	-11.0486
▁hochwasser	-11.0488
▁ergänzen	-11.0496
▁niedrige	-11.0498
▁leib	-11.0502
▁ratsvorsitz	-11.0504
▁uboot	-11.0504
ban	-11.0504
▁seltene	-11.0507
▁doktor	-11.0507
▁asche	-11.0509
dis	-11.0509
würdig	-11.0512
▁vertrieb	-11.0513
uren	-11.0516
▁weber	-11.0517
▁situationen	-11.052
▁ros	-11.0521
cia	-11.0523
▁autonome	-11.0524
tus	-11.0526
▁chefredakteur	-11.053
▁bestellt	-11.0531
▁hervorragend	-11.0531
▁ges	-11.0532
▁rum	-11.0533
▁bro	-11.0534
▁bundesland	-11.0534
▁kredit	-11.0535
▁einstimmig	-11.0536
▁humor	-11.0537
mechanismen	-11.0537
▁palästina	-11.0538
▁verschollen	-11.0538
▁thematisiert	-11.0538
▁beseitigt	-11.0538
▁lebzeit	-11.0538
▁beteiligen	-11.0538
▁duisburg	-11.0538
▁untersagt	-11.0538
▁ausgestrahlt	-11.0538
▁befreit	-11.0538
▁abgesetzt	-11.0538
▁klären	-11.0538
▁auffallend	-11.0538
▁hobby	-11.0538
▁keltische	-11.0538
▁entdeckung	-11.0538
▁gottfried	-11.0538
▁cat	-11.0539
▁benutzen	-11.0539
▁scheinbar	-11.054
▁beliebtheit	-11.054
▁erzeugen	-11.054
▁verfiel	-11.054
▁bronzezeit	-11.054
▁bersetzer	-11.0541
▁vorwürfe	-11.0543
laub	-11.0543
▁unterlagen	-11.0543
▁eindeutige	-11.0544
▁repräsentiert	-11.0544
▁kennzeichnung	-11.0544
ity	-11.0546
▁nordsee	-11.0547
▁abhängigkeit	-11.0547
▁pazifik	-11.0547
▁technologien	-11.0551
▁bull	-11.0555
▁geschlossene	-11.0555
▁habt	-11.0555
▁eingestuft	-11.0556
▁immobilien	-11.0557
▁mitarbeit	-11.0558
▁beliebte	-11.0559
reaktion	-11.056
▁werkzeug	-11.0561
▁durchführen	-11.0562
▁hahn	-11.0564
▁theo	-11.0566
▁zylinder	-11.0567
▁playoffs	-11.0568
▁ausrüstung	-11.057
▁gö	-11.057
▁räder	-11.057
▁register	-11.0571
▁gießen	-11.0571
▁gaben	-11.0573
▁briefe	-11.0574
club	-11.0574
▁len	-11.0576
gibt	-11.0576
▁woher	-11.0579
ec	-11.0579
▁kurzfristig	-11.0581
▁raub	-11.0583
▁konzentration	-11.0585
▁junioren	-11.0586
▁komm	-11.0586
heide	-11.0586
▁ermöglichte	-11.0589
▁genügend	-11.0593
▁förderer	-11.0594
▁far	-11.0599
▁siegel	-11.0603
ane	-11.0603
▁entwickelten	-11.0607
▁duo	-11.0609
▁fördert	-11.0609
▁reif	-11.0609
▁handwerker	-11.061
▁seminar	-11.0613
▁genoss	-11.0614
▁bezahlen	-11.0615
▁anmerkung	-11.0617
▁gerichte	-11.0618
▁eintritt	-11.0618
▁vergleichbare	-11.0623
▁aufgeben	-11.0624
▁ross	-11.0626
▁neuere	-11.0628
▁angeht	-11.0629
rod	-11.063
▁schalt	-11.063
▁hab	-11.0631
eur	-11.0634
organisationen	-11.0636
▁ortskern	-11.0638
▁höhle	-11.0639
▁verstand	-11.0639
▁spitznamen	-11.0642
▁konkreten	-11.0649
hab	-11.065
▁skulpturen	-11.065
▁wirft	-11.0652
▁kompetenz	-11.0654
▁gleis	-11.0666
▁bahnhofs	-11.0667
akademie	-11.0669
▁mü	-11.067
▁spezialisierte	-11.0674
▁weitergehen	-11.0676
▁kommunale	-11.0679
▁siedelten	-11.0683
ula	-11.0684
▁peru	-11.0691
▁human	-11.0691
▁ausgeprägt	-11.0691
▁wenden	-11.0692
fenster	-11.0693
kind	-11.0698
fällt	-11.0698
▁vorbehalten	-11.0699
greif	-11.0703
▁gleichmäßig	-11.0703
verlauf	-11.0704
post	-11.0704
▁wirksam	-11.0705
▁kriegsgefangen	-11.0707
▁seg	-11.071
▁vorfall	-11.0711
▁amtsgericht	-11.0712
back	-11.0716
▁weiten	-11.0719
stätten	-11.0719
▁deckt	-11.0727
▁eichen	-11.0728
▁planungen	-11.0731
▁flache	-11.0734
▁kommentare	-11.0734
▁protest	-11.0734
▁normen	-11.0735
▁beherrscht	-11.074
bundes	-11.0741
▁verehrte	-11.0741
▁künstliche	-11.0744
▁jos	-11.0747
gott	-11.0748
▁leucht	-11.0749
▁bol	-11.075
bucht	-11.0752
ram	-11.0756
▁studieren	-11.0759
▁gesund	-11.0759
▁christi	-11.0764
▁vel	-11.0764
▁niedriger	-11.0765
▁aufbewahrt	-11.0765
▁erneuert	-11.0765
▁fünfzehn	-11.0765
▁geliefert	-11.0765
▁koordiniert	-11.0765
▁leichnam	-11.0765
▁permanent	-11.0765
▁simbabwe	-11.0765
▁toronto	-11.0765
▁tragödie	-11.0765
▁verzeichnet	-11.0765
▁weitestgehend	-11.0765
▁wöchentlich	-11.0765
▁litauen	-11.0765
▁florenz	-11.0765
▁gestrichen	-11.0765
▁rechtzeitig	-11.0765
▁stellvertreter	-11.0765
▁informieren	-11.0765
▁ruhr	-11.0765
▁vorlesungen	-11.0765
▁lande	-11.0765
antonio	-11.0765
▁schwarzweiß	-11.0766
▁glaubwürdigkeit	-11.0766
▁verlässt	-11.0766
▁oval	-11.0767
▁beantwortet	-11.0767
▁irgendwa	-11.0767
▁verleger	-11.0768
▁liefern	-11.0768
▁gefangenschaft	-11.0768
▁militärdienst	-11.0769
▁manchester	-11.0769
▁gemeindebezirk	-11.0771
▁vorredner	-11.0771
▁greift	-11.0772
▁western	-11.0773
bin	-11.0773
▁begannen	-11.0773
▁beigetragen	-11.0774
▁lautete	-11.0775
▁hit	-11.0776
▁entlastung	-11.0776
▁marketing	-11.0777
▁geografisch	-11.0777
▁muttersprache	-11.0777
▁fünfmal	-11.0777
▁larven	-11.0778
▁moschee	-11.078
▁entlassung	-11.0781
▁jederzeit	-11.0782
▁trasse	-11.0784
▁festivals	-11.0786
sky	-11.0786
▁kriminalität	-11.0788
▁sehenswert	-11.0788
ester	-11.079
▁eth	-11.0794
▁massive	-11.0795
▁baron	-11.0799
szentrum	-11.08
▁hut	-11.0802
▁scheu	-11.0803
▁busch	-11.0813
▁wände	-11.0815
▁konzentriert	-11.0815
▁lehn	-11.0817
▁marsch	-11.0817
▁formel	-11.0819
com	-11.0823
sache	-11.0825
▁doppelte	-11.0836
▁gall	-11.0837
▁kinderlos	-11.0838
▁sorgt	-11.0839
▁schreib	-11.0839
▁objektive	-11.084
▁portal	-11.0841
▁umland	-11.0842
masse	-11.0843
▁verblieb	-11.0847
▁systematische	-11.0849
▁empfehlung	-11.0849
nischen	-11.0851
▁strömung	-11.0859
▁tibet	-11.086
▁einschränkungen	-11.086
vel	-11.0861
▁tim	-11.0861
ausstellungen	-11.0862
ott	-11.0863
▁vieles	-11.0865
▁statistik	-11.0865
▁krisen	-11.0866
dan	-11.087
zell	-11.0874
▁meint	-11.0874
▁grob	-11.0874
gestaltung	-11.0878
▁probe	-11.0879
ationen	-11.0881
▁sofortige	-11.0883
schläge	-11.0884
▁entstehende	-11.0885
▁erlassen	-11.0887
gerechnet	-11.0888
fahrten	-11.0888
▁vierter	-11.0894
▁verbände	-11.0898
▁brun	-11.09
▁fl	-11.09
▁bewegungen	-11.0904
▁wel	-11.0906
▁mannes	-11.0909
▁selbstständig	-11.091
van	-11.0917
▁ethnische	-11.0917
eich	-11.0917
stift	-11.0919
▁basieren	-11.092
▁schöne	-11.0923
hafen	-11.0924
▁kette	-11.0926
▁harte	-11.0927
▁rege	-11.0927
lia	-11.093
stärke	-11.0931
▁fähigkeit	-11.0932
auftritt	-11.0933
wood	-11.0933
▁springen	-11.0937
▁lehne	-11.0937
regelung	-11.0938
▁abfall	-11.0938
▁kantons	-11.0939
ish	-11.0943
▁bereitet	-11.0944
klang	-11.0944
geschaltet	-11.0948
vorschriften	-11.0953
mos	-11.0954
▁passagiere	-11.0955
▁loh	-11.0955
▁tar	-11.0957
▁dro	-11.0959
awa	-11.0961
▁model	-11.0962
rücken	-11.0969
▁reichlich	-11.0971
▁gewannen	-11.0971
politische	-11.0977
▁botschafter	-11.0981
▁gattungen	-11.0984
▁wäldern	-11.0986
▁illegal	-11.0986
▁marx	-11.0988
▁dal	-11.0989
ise	-11.0992
▁karosserie	-11.0994
▁gehe	-11.0997
dresdner	-11.0997
▁abgrenzung	-11.0997
▁atmosphäre	-11.0997
▁beschuldigt	-11.0997
▁dokumentarfilm	-11.0997
▁dreizehn	-11.0997
▁erfinder	-11.0997
▁verwirklicht	-11.0997
▁vorläufig	-11.0997
▁verwehrt	-11.0997
▁sauerstoff	-11.0998
▁ruht	-11.0998
▁viehzucht	-11.0998
▁fame	-11.0998
▁rotbraun	-11.0998
▁ruhestand	-11.0999
▁erfunden	-11.0999
▁bundesregierung	-11.0999
▁gleicher	-11.1003
strecken	-11.1003
▁westfälische	-11.1003
▁sanierung	-11.1005
gelassen	-11.1005
formation	-11.1006
▁verdacht	-11.1006
▁folk	-11.1007
▁bassist	-11.1007
▁intervention	-11.1007
▁verhältnismäßig	-11.101
waffen	-11.101
austausch	-11.1011
fluggesellschaft	-11.1013
▁wirkliche	-11.1014
▁irischen	-11.1014
▁stadium	-11.1014
▁vorsichtig	-11.1014
▁abgeben	-11.1015
▁korrektur	-11.1016
▁stockwerk	-11.1017
▁multi	-11.102
▁vorrang	-11.1021
▁zukünftig	-11.1024
▁gräber	-11.1027
▁umsetzen	-11.1028
▁mauern	-11.1029
spann	-11.1032
▁kommentar	-11.1033
▁tote	-11.1035
▁drehte	-11.1035
▁aussicht	-11.1038
▁singen	-11.1039
▁verpasste	-11.1045
▁server	-11.1047
▁ego	-11.105
▁seitens	-11.1051
▁ernennung	-11.1051
▁handlungen	-11.1052
cla	-11.1052
orden	-11.1053
▁goldmedaille	-11.1054
▁publizierte	-11.1056
▁landung	-11.1056
▁jugendlicher	-11.106
▁intensive	-11.1063
▁kurse	-11.1065
▁lateinische	-11.1069
▁schweizerische	-11.107
lar	-11.1071
▁cur	-11.1072
▁gras	-11.1073
▁hö	-11.1078
ella	-11.1087
▁hau	-11.1089
▁bauwerke	-11.1097
▁pest	-11.1099
▁bedanken	-11.1102
▁knoten	-11.1103
▁erzbistum	-11.111
▁mäßig	-11.1116
▁sil	-11.1118
▁auswärtige	-11.1121
▁prominente	-11.1121
▁jesu	-11.1122
▁weiblichen	-11.1124
▁bock	-11.1129
welle	-11.1129
hard	-11.113
▁rast	-11.1131
▁zweige	-11.1132
▁verkaufen	-11.1133
q	-11.1136
▁anordnung	-11.1136
mühle	-11.1141
▁arg	-11.1145
mitten	-11.1145
tis	-11.1146
▁häftlinge	-11.1147
▁mol	-11.1149
ies	-11.1152
▁sichere	-11.1153
uff	-11.1155
▁teilung	-11.1157
▁kaisers	-11.1158
side	-11.1158
zog	-11.1159
▁fer	-11.1161
▁exakt	-11.1161
▁netze	-11.1165
artikel	-11.1168
komplex	-11.1169
güter	-11.1169
▁europameister	-11.117
▁brenn	-11.117
papier	-11.117
studio	-11.1171
grün	-11.1171
▁beat	-11.1173
vogel	-11.1173
▁tödlich	-11.1174
▁auflagen	-11.1175
▁löst	-11.1176
▁ter	-11.118
▁blumen	-11.1184
▁stammende	-11.1187
cal	-11.1189
schütz	-11.1193
gh	-11.1198
ose	-11.1199
▁mac	-11.12
▁gewaltige	-11.121
▁mais	-11.121
▁aluminium	-11.1212
▁landwirt	-11.1215
▁run	-11.1215
▁gefährliche	-11.1215
▁setzten	-11.1219
sprachige	-11.1221
kinder	-11.1226
▁cra	-11.1226
▁leiten	-11.1229
▁schwarzer	-11.123
▁tendenz	-11.1231
▁moderator	-11.1231
▁vertrauens	-11.1232
▁möbel	-11.1235
▁blütenstand	-11.1236
▁ausgestorben	-11.1236
▁budapest	-11.1236
▁gestärkt	-11.1236
▁präfektur	-11.1236
▁taylor	-11.1236
▁tschechien	-11.1236
▁universal	-11.1236
▁überquert	-11.1236
▁first	-11.1236
▁valentin	-11.1236
▁freischaffend	-11.1236
▁indonesien	-11.1236
▁katharina	-11.1236
▁austragungsort	-11.1236
▁tafel	-11.1236
▁fulda	-11.1236
▁fischfang	-11.1236
▁dringlichkeit	-11.1237
▁günther	-11.1237
▁fertigstellung	-11.1237
▁wirksamkeit	-11.1238
▁kalender	-11.1238
▁hauptbahnhof	-11.124
▁begünstigt	-11.124
▁budget	-11.1241
▁klingt	-11.1242
▁textil	-11.1243
▁johnson	-11.1243
▁erholung	-11.1244
▁verdiente	-11.1247
▁aufgefordert	-11.1247
▁symbolisch	-11.1248
▁verbindungs	-11.1248
▁bart	-11.1249
▁tempo	-11.1249
▁absichten	-11.1251
▁böse	-11.1254
▁entschuldigen	-11.1255
▁oliver	-11.1258
▁box	-11.1258
▁ernsthafte	-11.1258
schiffe	-11.1259
▁angegriffen	-11.1259
▁könige	-11.1261
▁übergeben	-11.1261
▁lebensweise	-11.1262
ndorf	-11.1263
▁schottische	-11.1263
prinzip	-11.1264
nk	-11.1264
▁angehörigen	-11.1267
▁bearbeitung	-11.1268
▁ausführliche	-11.127
▁treffer	-11.1274
▁zeitalter	-11.1274
▁ansprüche	-11.1275
figuren	-11.1276
▁lieb	-11.1282
▁rechnen	-11.1283
▁reiz	-11.1285
▁krank	-11.1286
▁jim	-11.1287
pfen	-11.129
san	-11.1292
block	-11.1296
gold	-11.1299
sburg	-11.13
▁sprung	-11.1301
▁dra	-11.1303
skosten	-11.1306
▁kälte	-11.1306
▁entwürfe	-11.1309
▁datenschutz	-11.131
oma	-11.1313
▁begleitete	-11.1316
▁verzichtete	-11.1316
▁out	-11.1318
▁link	-11.1319
▁sinfonie	-11.1323
▁schweigen	-11.1324
▁ministerium	-11.1333
▁stone	-11.1333
▁dirigent	-11.1336
▁vergrößert	-11.134
▁beruflich	-11.134
▁mach	-11.1341
▁klo	-11.1344
▁belege	-11.1346
▁anstalt	-11.1348
▁wesen	-11.1353
▁klimawandel	-11.1353
▁erteilt	-11.1354
pflanzen	-11.1355
▁kindes	-11.1356
karten	-11.1359
▁klaren	-11.1361
▁religionen	-11.1362
ria	-11.1364
▁neo	-11.1377
▁umfangreich	-11.1381
▁peters	-11.1381
▁protestantische	-11.1382
▁dritt	-11.1383
▁gemischt	-11.1383
▁gleise	-11.1389
▁zone	-11.1389
▁leistet	-11.1389
skirche	-11.1391
▁benötigte	-11.1393
märkte	-11.1394
▁jünger	-11.1399
▁zeitlich	-11.1402
▁porträt	-11.1402
▁format	-11.1404
wart	-11.1407
dl	-11.1412
signal	-11.1416
▁zielgruppe	-11.1416
gipfel	-11.1416
gleichung	-11.1416
▁betreffende	-11.1425
▁gene	-11.1427
▁beachtliche	-11.1427
▁anzeichen	-11.143
▁musst	-11.143
▁gleichberechtig	-11.1433
lag	-11.1434
▁such	-11.1434
▁auslös	-11.1435
▁nachteil	-11.1437
weiß	-11.1438
▁violine	-11.1439
stunden	-11.1442
fassung	-11.1445
▁gebäuden	-11.1445
▁befestigung	-11.1448
▁kammermusik	-11.1448
seitig	-11.1454
▁zufall	-11.1454
▁hang	-11.1455
▁radikal	-11.1457
ore	-11.1458
▁gefühle	-11.146
jahre	-11.1462
mitglieder	-11.1462
▁vorgänge	-11.1463
temperatur	-11.1464
▁beweisen	-11.1464
▁ketten	-11.1468
▁klinische	-11.1469
▁nest	-11.1476
▁angekündigt	-11.1479
▁bemühen	-11.1479
▁betreuung	-11.1479
▁eingewechselt	-11.1479
▁gestartet	-11.1479
▁gewährleisten	-11.1479
▁identifiziert	-11.1479
▁libanon	-11.1479
▁mozart	-11.1479
▁mängel	-11.1479
▁windows	-11.148
▁glückwunsch	-11.148
▁wahrgenommen	-11.148
▁begangen	-11.148
▁kelchblätter	-11.148
▁harald	-11.148
▁wahlperiode	-11.148
▁armeekorps	-11.148
▁stalin	-11.1481
▁weitergeführt	-11.1481
▁berechnet	-11.1482
▁wahren	-11.1483
▁zeitgleich	-11.1483
▁vollendet	-11.1483
▁beschreiben	-11.1483
▁unterhielt	-11.1484
▁verziert	-11.1484
▁ulm	-11.1484
▁personenverkehr	-11.1484
▁unfälle	-11.1484
▁kavallerie	-11.1485
▁zweitgrößte	-11.1486
▁hubschrauber	-11.1487
▁hockey	-11.1487
▁express	-11.1487
▁reguläre	-11.1488
▁gent	-11.149
▁aufschwung	-11.149
▁bauarbeiten	-11.1492
▁skandal	-11.1494
▁acker	-11.1495
▁solide	-11.1495
mas	-11.1495
▁beinahe	-11.1496
▁grimm	-11.1497
▁thal	-11.1498
wen	-11.1498
▁mö	-11.1498
▁schmuck	-11.1501
▁point	-11.1504
▁eingangs	-11.1506
▁katastrophen	-11.1507
▁vorderen	-11.1511
▁sä	-11.1511
▁brigade	-11.1512
▁wales	-11.1514
▁periode	-11.1516
▁vorsitzenden	-11.1518
▁existierte	-11.1523
anti	-11.1524
tschechoslowakei	-11.1524
▁palast	-11.1528
▁giebel	-11.1531
ire	-11.1531
▁charts	-11.1532
▁block	-11.1532
▁bildende	-11.1538
ecke	-11.1538
▁angekommen	-11.1544
▁beute	-11.1544
▁sportarten	-11.1545
▁mei	-11.1548
▁schreibweise	-11.1548
▁lehren	-11.1549
zentrale	-11.155
▁gratuliere	-11.1551
▁schallplatten	-11.1551
suniversität	-11.1553
▁bö	-11.1553
▁jetzigen	-11.1553
ova	-11.1554
▁zulassen	-11.1557
▁bl	-11.1557
▁pel	-11.1561
▁laser	-11.1566
klassen	-11.1566
küste	-11.1567
▁vorort	-11.1569
▁wartet	-11.157
▁rufen	-11.1572
▁wohnungen	-11.1574
▁selbstmord	-11.1574
stel	-11.1577
gesch	-11.1577
▁aufsätze	-11.1577
▁ansiedlung	-11.1578
schaften	-11.1578
▁heirat	-11.1578
motoren	-11.1578
▁mad	-11.158
▁erhöhte	-11.1582
▁beschrieb	-11.1583
eli	-11.1584
▁jüngsten	-11.1585
▁kron	-11.1596
▁frist	-11.1603
▁antarktis	-11.1604
filme	-11.1606
sgesellschaft	-11.1606
▁verteidigte	-11.1608
▁jesus	-11.1609
▁verweisen	-11.1611
▁titelverteidig	-11.1612
fallen	-11.1613
▁roger	-11.1617
nberg	-11.1619
▁party	-11.1622
▁getrennte	-11.1624
▁play	-11.1624
▁statistische	-11.1626
▁leitende	-11.1627
▁ott	-11.1629
typen	-11.1631
hieb	-11.1632
sicherung	-11.1632
▁ruhig	-11.1635
▁anerkannter	-11.1636
▁erteilen	-11.1642
hau	-11.1644
▁russisch	-11.1648
heimer	-11.1652
geschnitten	-11.1654
▁befürworten	-11.1658
▁böhmen	-11.1659
gärten	-11.166
▁str	-11.1661
▁problems	-11.1662
▁nerven	-11.1664
▁schiffen	-11.1664
fort	-11.1664
▁industriellen	-11.1665
▁kla	-11.1665
künstler	-11.1665
jugend	-11.1666
▁sozialer	-11.1667
pha	-11.1671
▁med	-11.1672
▁dachte	-11.1682
▁prüf	-11.1684
▁stufe	-11.1687
▁bibliotheken	-11.1688
tiv	-11.1689
▁sar	-11.169
▁ska	-11.1698
▁ran	-11.1699
▁differenz	-11.17
konferenz	-11.1712
▁kritiken	-11.1713
▁up	-11.172
stell	-11.1722
▁falschen	-11.1723
▁wohlhabende	-11.1725
▁monument	-11.1725
▁angriffe	-11.1726
▁bemerkt	-11.1729
▁neapel	-11.1729
▁pennsylvania	-11.1729
▁science	-11.1729
▁verkürzt	-11.1729
▁konstanz	-11.1729
▁sammler	-11.1729
▁unbewohnt	-11.1729
▁aktionsplan	-11.1729
▁beeinflussen	-11.1729
▁gestielt	-11.1729
▁verstärken	-11.173
▁überprüfen	-11.173
▁blasonier	-11.173
▁ortsvorsteher	-11.173
▁lehrstuhl	-11.173
▁leitlinien	-11.173
▁beachtet	-11.173
▁gastgeber	-11.173
▁großmutter	-11.1731
▁stattgefunden	-11.1731
▁mittelmeerraum	-11.1731
iten	-11.1732
▁eiserne	-11.1732
▁zentralbank	-11.1732
▁preisträger	-11.1732
▁gefecht	-11.1733
▁residenz	-11.1734
▁gelingen	-11.1735
▁nordseite	-11.1736
▁petersburg	-11.1737
▁ruth	-11.1737
▁besitzungen	-11.174
▁lem	-11.174
▁semester	-11.174
▁markus	-11.1741
▁befahren	-11.1741
▁kommandant	-11.1743
▁kaufte	-11.1744
▁vorgeworfen	-11.1745
▁linden	-11.1745
sieg	-11.1751
▁spielzeiten	-11.1752
▁feststellung	-11.1752
▁ankunft	-11.1752
▁geschäftsstelle	-11.1755
▁plastik	-11.1756
amo	-11.1758
▁pädagogische	-11.1759
▁ausläufer	-11.1762
▁rande	-11.1766
▁wuppertal	-11.1769
▁turn	-11.1772
▁leber	-11.1773
▁grundstück	-11.1773
abkommen	-11.1774
▁stimmung	-11.1775
red	-11.1778
▁erwerb	-11.1779
besitzer	-11.1779
▁thor	-11.1782
▁kombiniert	-11.1783
beziehung	-11.1786
regierungsbezirk	-11.1786
star	-11.1788
▁verzichten	-11.1792
reife	-11.1795
▁tur	-11.1797
▁tabellen	-11.1799
▁verteidigungs	-11.1799
iller	-11.1799
▁schlagzeuger	-11.1801
regiment	-11.1802
nte	-11.1805
▁fernsehserie	-11.1809
herstellung	-11.181
mitte	-11.1817
▁lern	-11.1823
▁charaktere	-11.1824
▁kunstwerke	-11.1826
inus	-11.1828
▁ausgewogen	-11.183
▁zwischenzeit	-11.1832
dal	-11.1833
▁dorn	-11.1835
▁dokumentation	-11.1836
▁nuklear	-11.1836
▁trafen	-11.1839
▁berechnung	-11.1839
▁substanz	-11.1844
app	-11.1844
▁achtung	-11.1846
▁bauteile	-11.1847
▁aufführung	-11.1849
▁scha	-11.1849
▁pause	-11.1852
▁frequenz	-11.1854
qua	-11.1856
▁ergebnissen	-11.1858
bindung	-11.1859
▁email	-11.1859
▁raketen	-11.186
lock	-11.1866
▁hom	-11.1867
▁schlei	-11.1867
weitaus	-11.187
sfähig	-11.1871
▁erweiterte	-11.1876
ox	-11.1878
▁qualitäts	-11.1879
spiegel	-11.1883
▁ecke	-11.1888
▁leo	-11.1889
führt	-11.1891
▁moderner	-11.1891
▁pionier	-11.1892
▁trag	-11.1899
▁mos	-11.1902
▁tele	-11.1903
▁astronom	-11.1903
ington	-11.1906
▁mechanische	-11.1908
archiv	-11.1909
sein	-11.1911
▁außenminister	-11.1911
▁befürwortet	-11.1912
▁abenteuer	-11.1913
ssitz	-11.1915
▁restaurants	-11.1916
sausschusses	-11.1917
lutherische	-11.1922
▁seminare	-11.1922
fuß	-11.1925
bestand	-11.1928
ira	-11.1929
issen	-11.1933
▁seele	-11.1936
▁attraktiv	-11.1939
▁uni	-11.194
▁pr	-11.1944
▁wohnen	-11.1947
kum	-11.1947
▁dia	-11.1949
versuch	-11.1953
▁wu	-11.1957
nische	-11.1957
▁lese	-11.196
▁mönche	-11.1966
▁beschränkte	-11.1967
▁fries	-11.1975
▁drama	-11.198
▁einiges	-11.198
▁rap	-11.1983
flottille	-11.1986
▁academy	-11.1986
▁breisgau	-11.1986
▁council	-11.1986
▁elizabeth	-11.1986
▁empirisch	-11.1986
▁erstaunlich	-11.1986
▁flensburg	-11.1986
▁geschafft	-11.1986
▁illinois	-11.1986
▁paderborn	-11.1986
▁sciencefiction	-11.1986
▁sizilien	-11.1986
▁verschärft	-11.1986
▁wofür	-11.1986
▁istanbul	-11.1986
▁serbische	-11.1986
▁einzelheiten	-11.1986
▁betraf	-11.1986
▁architektonisch	-11.1986
▁zusammengesetzt	-11.1986
▁weser	-11.1986
▁nackt	-11.1986
▁deuten	-11.1986
▁fliegt	-11.1986
▁keinesfalls	-11.1986
▁zugestimmt	-11.1986
▁angewiesen	-11.1986
▁gehirn	-11.1986
▁festgenommen	-11.1986
▁carolina	-11.1986
▁fortpflanzung	-11.1987
▁erdöl	-11.1987
▁schiller	-11.1987
▁bodendenkmal	-11.1987
▁obliegt	-11.1987
▁flora	-11.1987
▁drauf	-11.1987
uro	-11.1988
▁erzogen	-11.1988
▁schwangerschaft	-11.1988
▁kalkstein	-11.1988
▁hinnehmen	-11.1988
▁bundesweit	-11.1989
▁highway	-11.199
▁ltere	-11.1991
▁autorität	-11.1992
▁brems	-11.1992
▁ökonomische	-11.1992
▁faktisch	-11.1993
▁explosion	-11.1993
▁prinzessin	-11.1993
▁mobilität	-11.1994
▁platte	-11.1995
▁hiervon	-11.1995
▁skandinavien	-11.1995
erscheinungsbild	-11.1995
▁günstig	-11.1995
▁ernährung	-11.1996
▁spi	-11.1997
abend	-11.1998
▁cross	-11.1999
▁kleinstadt	-11.1999
▁harmonisierung	-11.1999
▁ganzjährig	-11.1999
▁nachkriegszeit	-11.2
▁pommern	-11.2
▁keim	-11.2
▁europaweit	-11.2001
▁segment	-11.2001
▁filmmusik	-11.2001
▁mechanismus	-11.2001
▁atlantik	-11.2002
▁bewahren	-11.2002
wall	-11.2005
▁kro	-11.2006
weiterentwickelt	-11.2009
▁erkrankungen	-11.201
▁gesteuert	-11.201
▁katalog	-11.2012
▁bricht	-11.2013
▁plattform	-11.2019
▁bilanz	-11.2019
▁verwiesen	-11.2021
▁liberale	-11.2023
▁jahrzehnt	-11.203
verbandsgemeinde	-11.2033
▁ausgegeben	-11.2033
▁nick	-11.2034
▁prozesses	-11.2035
▁spektrum	-11.2036
▁gra	-11.2037
▁iris	-11.2042
▁fertigung	-11.2043
more	-11.2045
▁versorgungs	-11.2045
trieb	-11.2047
▁barr	-11.2047
▁gem	-11.2048
part	-11.2048
▁umgehend	-11.205
▁verringern	-11.205
▁flur	-11.205
▁komponiert	-11.2053
▁bauweise	-11.2058
▁misch	-11.2067
▁empfehle	-11.2068
▁wachstums	-11.2074
▁berechtigt	-11.2077
▁bekleidete	-11.2077
▁polizisten	-11.2078
ico	-11.2079
stheorie	-11.208
▁pin	-11.208
worth	-11.2082
brüche	-11.2088
▁beihilfen	-11.2089
▁zo	-11.2091
technisch	-11.2093
vorstand	-11.2095
▁held	-11.2095
▁längs	-11.2096
▁verschwand	-11.2098
▁teich	-11.2098
▁stifter	-11.2099
▁speise	-11.2099
▁rückte	-11.21
▁transparent	-11.2102
▁ai	-11.2102
▁monats	-11.2102
ali	-11.2108
ical	-11.2108
▁maus	-11.2108
verhalten	-11.2111
▁kraftwerk	-11.2117
▁nürnberger	-11.2121
▁markante	-11.2122
▁branche	-11.2126
▁konstruktiv	-11.2128
▁aktivität	-11.2132
sstelle	-11.2135
▁einflussreich	-11.2135
▁weiden	-11.2137
ionen	-11.2145
▁faktor	-11.2148
▁stabile	-11.2149
▁einnahmen	-11.215
▁fachwerk	-11.215
sfeld	-11.215
▁jane	-11.2152
▁anstellung	-11.2157
utz	-11.2157
▁benutzte	-11.2158
▁mündliche	-11.216
▁stadtzentrum	-11.2164
busse	-11.2167
iner	-11.217
geschäfte	-11.2175
▁unterhalten	-11.2175
▁unterstand	-11.2176
▁gil	-11.2177
▁landete	-11.2178
▁alltag	-11.2179
▁schuh	-11.218
▁cap	-11.2181
▁tatsächliche	-11.2183
▁konfession	-11.2183
pflege	-11.2184
schreiber	-11.2185
▁theorien	-11.2187
house	-11.2187
hergestellt	-11.2187
▁gebietes	-11.2192
▁ordentliche	-11.2198
bett	-11.2204
▁literarisch	-11.2204
▁inc	-11.2204
ffer	-11.2206
essen	-11.2207
raten	-11.2208
▁pap	-11.221
nähe	-11.2212
▁rasse	-11.2214
▁externe	-11.2216
vereins	-11.2216
wehr	-11.222
▁spezial	-11.2222
ret	-11.2224
▁sichtbare	-11.2224
▁artillerie	-11.2225
wende	-11.2225
ada	-11.2225
▁polar	-11.2226
wein	-11.2229
rmaßen	-11.2231
grau	-11.2233
▁off	-11.2233
▁vorschlags	-11.2234
alt	-11.2234
▁muskel	-11.2236
▁gesellschafts	-11.2236
boot	-11.224
▁ohr	-11.2244
quelle	-11.2246
▁victor	-11.2248
▁angezeigt	-11.2249
▁apostel	-11.2249
▁association	-11.2249
▁ausgeübt	-11.2249
▁beeinträchtigt	-11.2249
▁entnommen	-11.2249
▁intelligenz	-11.2249
▁mythologie	-11.2249
▁public	-11.2249
▁unentschieden	-11.2249
▁vatikan	-11.2249
▁bosnien	-11.2249
▁vergeblich	-11.2249
▁beschränken	-11.2249
▁felix	-11.2249
▁reichweite	-11.2249
▁missverständnis	-11.2249
▁dunkelbraun	-11.2249
▁auftraggeber	-11.2249
senkung	-11.2249
▁peking	-11.2249
▁siegfried	-11.225
▁symbolisiert	-11.225
▁astronomie	-11.2251
▁moritz	-11.2251
▁good	-11.2251
▁sophie	-11.2251
▁schwe	-11.2251
bauweise	-11.2252
▁deutlicher	-11.2252
▁verspricht	-11.2253
phase	-11.2253
▁sicherstellen	-11.2254
▁ministerrat	-11.2254
▁ackerbau	-11.2254
▁aufge	-11.2255
▁eroberung	-11.2257
▁vorsicht	-11.2257
▁oblast	-11.2258
▁angenehm	-11.2259
▁bodensee	-11.226
▁gespalten	-11.226
▁vorwurf	-11.2261
▁gedächtnis	-11.2262
▁archäologie	-11.2263
▁selbständige	-11.2263
▁durchzuführen	-11.2263
▁bandmitglieder	-11.2263
▁eiförmig	-11.2264
▁pfalz	-11.2265
▁duft	-11.2265
▁märchen	-11.2266
▁bahnhöfe	-11.2266
▁träume	-11.2266
▁leder	-11.2267
▁gewebe	-11.2267
▁linear	-11.2268
▁kessel	-11.2271
rohr	-11.2272
smittel	-11.2273
nummer	-11.2274
▁kulturen	-11.2275
▁agenda	-11.2276
▁antreten	-11.2277
oc	-11.2277
▁spring	-11.2277
▁etappen	-11.2278
strich	-11.2278
▁aufzubauen	-11.2281
▁stellten	-11.2283
▁she	-11.2284
▁vit	-11.2284
▁angebote	-11.2285
▁veränderte	-11.2285
▁stars	-11.2285
▁hellen	-11.2285
▁konstruiert	-11.2286
▁komitee	-11.2286
▁palm	-11.2286
svorschlag	-11.2288
▁einladung	-11.2291
▁gezielt	-11.2293
▁länderspiel	-11.2294
▁befürworter	-11.2294
▁friedrichs	-11.2296
▁scheiterten	-11.2296
▁siegen	-11.2297
▁gotteshaus	-11.2298
▁gib	-11.2298
▁verarbeitende	-11.2299
▁handy	-11.23
einrichtung	-11.2307
▁pädagogik	-11.2309
kra	-11.231
zeitschrift	-11.231
▁droht	-11.231
wort	-11.231
▁eingriff	-11.2312
▁orientierte	-11.2314
▁feinde	-11.2314
icht	-11.2314
trakt	-11.2315
▁geburts	-11.2316
vertreter	-11.2317
▁nah	-11.2317
▁sekundär	-11.2318
▁dazwischen	-11.2318
▁etabliert	-11.2318
▁stützen	-11.232
▁kader	-11.2323
▁urlaub	-11.2325
zt	-11.2331
▁giftig	-11.2336
▁einheimische	-11.234
▁vorhin	-11.234
▁trennen	-11.2343
▁teilchen	-11.2344
▁france	-11.2346
▁projekten	-11.2346
sfreiheit	-11.2347
▁bergwerk	-11.2347
▁abends	-11.2349
▁füße	-11.2355
▁komplizierte	-11.2355
kur	-11.2356
▁offiziere	-11.2358
▁abfahrt	-11.2366
▁trio	-11.2367
▁durchgehend	-11.2368
shire	-11.2373
▁gruben	-11.2375
▁galerie	-11.2376
hor	-11.2381
▁sexuelle	-11.2382
▁klage	-11.2383
sländer	-11.2388
▁media	-11.2389
▁bestes	-11.239
▁stattfindende	-11.239
▁typen	-11.2391
hardt	-11.2394
▁infektion	-11.2394
▁klarer	-11.2395
bare	-11.2395
▁pakistan	-11.2397
▁sauer	-11.2399
▁weißlich	-11.24
▁cy	-11.24
▁sowjet	-11.2401
▁fr	-11.2401
▁jun	-11.2404
▁angrenzenden	-11.2405
enfalls	-11.2405
kau	-11.2418
▁sbahn	-11.2419
▁yorker	-11.2422
▁spiegelt	-11.2423
▁empfindlich	-11.2428
besuch	-11.243
▁tatsachen	-11.2431
▁pal	-11.2436
▁württembergisch	-11.2441
▁befehl	-11.2441
▁ding	-11.2442
festival	-11.2442
▁stadtmauer	-11.2446
▁alleinige	-11.2446
▁aspekten	-11.2448
lief	-11.245
rechnung	-11.2451
nutzung	-11.2452
▁ehrgeizig	-11.2453
medaille	-11.2453
höhle	-11.2455
▁hy	-11.2455
bühne	-11.2456
▁roter	-11.246
winkel	-11.2462
▁mathematisch	-11.2463
▁bab	-11.2464
▁fried	-11.2476
schließt	-11.2478
rolle	-11.2479
▁kult	-11.2479
▁fang	-11.2481
▁nachträglich	-11.2483
öd	-11.2488
▁fischen	-11.2495
fel	-11.2499
▁darm	-11.25
▁wille	-11.2501
kirch	-11.2501
▁ehre	-11.2506
▁drehbuchautor	-11.2512
▁ji	-11.2513
town	-11.2513
stre	-11.2514
▁pension	-11.2519
▁sklaven	-11.2519
▁aufruf	-11.2519
▁anerkennen	-11.2519
▁belastet	-11.2519
▁benjamin	-11.2519
▁eingeteilt	-11.2519
▁empfunden	-11.2519
▁gepflegt	-11.2519
▁konsultation	-11.2519
▁manfred	-11.2519
▁metropolregion	-11.2519
▁sebastian	-11.2519
▁shakespeare	-11.2519
▁südtirol	-11.2519
▁territorial	-11.2519
▁widersprüchlich	-11.2519
▁zerstören	-11.2519
▁spärlich	-11.2519
▁zauber	-11.2519
▁erweitern	-11.2519
▁kanzel	-11.2519
▁steuerzahler	-11.2519
▁köhler	-11.2519
▁bielefeld	-11.2519
▁inflation	-11.2519
▁misstrauen	-11.2519
▁versichern	-11.2519
▁zugehörige	-11.2519
▁harvard	-11.2519
▁franziskaner	-11.2519
▁käufer	-11.252
▁nachbargemeinde	-11.252
▁fortgeführt	-11.252
▁querschnitt	-11.252
▁mount	-11.252
▁howard	-11.252
▁ratifizierung	-11.2521
▁eingreifen	-11.2521
▁medium	-11.2521
▁kernkraftwerk	-11.2521
▁entschädigung	-11.2521
erlandesgericht	-11.2522
▁elektronen	-11.2522
▁road	-11.2522
▁befürworte	-11.2523
▁street	-11.2523
▁kim	-11.2523
▁holland	-11.2523
▁gekrönt	-11.2524
▁realismus	-11.2524
▁charlie	-11.2524
▁distanz	-11.2524
▁unterliegt	-11.2525
▁südseite	-11.2525
▁hindernisse	-11.2525
ky	-11.2526
▁abkürzung	-11.2527
griff	-11.2528
▁weh	-11.2528
▁rezept	-11.2528
▁energiepolitik	-11.2528
▁engländer	-11.2528
▁bienen	-11.2529
▁gaststätte	-11.2529
▁slalom	-11.2531
▁statut	-11.2532
▁power	-11.2532
▁allzu	-11.2533
▁gebirgs	-11.2533
▁byzantinische	-11.2534
▁problematik	-11.2536
▁kirchenmusik	-11.2536
lla	-11.2537
▁verankert	-11.2537
▁monarchie	-11.2539
ili	-11.2541
▁filter	-11.2544
▁laufzeit	-11.2545
▁lade	-11.2545
▁katholiken	-11.2546
▁sende	-11.2547
englischsprachig	-11.2549
▁fragt	-11.255
▁unabhängigkeits	-11.2552
platte	-11.2552
▁hnliche	-11.2553
▁nachteile	-11.2554
sie	-11.2554
▁verurteilen	-11.2557
sion	-11.2557
▁fehlte	-11.2557
▁aufkommen	-11.2559
▁ihrerseits	-11.256
▁gedenken	-11.2566
▁baumeister	-11.2567
▁johanna	-11.2567
ais	-11.2571
▁systemen	-11.2572
▁röhren	-11.2574
gemacht	-11.2576
zulegen	-11.2579
▁ty	-11.2579
▁angestellter	-11.2579
▁schwache	-11.2581
▁mast	-11.2582
▁day	-11.2582
▁aktiver	-11.2585
▁countys	-11.2591
▁heiße	-11.2594
▁absolviert	-11.2594
▁gerechnet	-11.2597
ase	-11.2599
▁rick	-11.2601
▁adels	-11.2602
▁stärksten	-11.2603
saft	-11.2603
▁kai	-11.2606
▁tony	-11.2608
▁bildern	-11.2616
▁schwimmen	-11.2617
▁siedelte	-11.2618
▁scho	-11.2619
bal	-11.2621
ligen	-11.2623
▁kirchlich	-11.2625
▁willst	-11.2627
▁marktwirtschaft	-11.2627
öll	-11.2628
▁nase	-11.2629
nord	-11.2629
▁saar	-11.2631
▁bestätigte	-11.2631
▁verbliebene	-11.2633
▁verzweigt	-11.2633
▁geborene	-11.2635
▁irr	-11.2638
▁vertretern	-11.2638
▁italiener	-11.2639
▁vorherigen	-11.264
▁russlands	-11.2643
▁heiß	-11.2643
▁hauptwerk	-11.2644
▁umzug	-11.2645
▁jährliche	-11.2645
ttel	-11.2646
▁one	-11.2647
▁spar	-11.2652
▁lehrerin	-11.2653
▁erkrankte	-11.2658
▁import	-11.2659
kleid	-11.2662
format	-11.2668
▁truppe	-11.2673
▁erwähnten	-11.2675
rig	-11.2678
▁anführer	-11.268
laut	-11.2682
▁musical	-11.2686
ade	-11.2686
▁ernste	-11.2688
sleben	-11.269
▁cover	-11.269
▁schwimm	-11.2691
▁ausgewogene	-11.2692
▁touristisch	-11.2693
▁unbekannte	-11.2694
▁linde	-11.2696
abschnitt	-11.27
▁clubs	-11.2701
▁einheimischen	-11.2702
▁erzählung	-11.2703
▁monte	-11.2704
▁vorfeld	-11.2706
gegangen	-11.2707
▁fungiert	-11.271
schaffen	-11.271
landeshauptstadt	-11.2712
▁begriffs	-11.272
hochschule	-11.2728
▁weißer	-11.273
bedarf	-11.2731
schwarz	-11.2732
kapazität	-11.2733
beschreibung	-11.2736
▁bescheiden	-11.2738
kämpfer	-11.2744
▁brüdern	-11.275
▁fla	-11.2752
▁pfarr	-11.2753
▁gebiets	-11.2753
▁aufbauen	-11.2761
▁zitiert	-11.2761
▁achse	-11.2761
▁insolvenz	-11.2762
scheinend	-11.2765
▁herunter	-11.2768
instrumente	-11.2773
▁geistlichen	-11.2773
▁weiterbildung	-11.2775
▁alarm	-11.2778
▁states	-11.2778
▁partie	-11.2779
▁stammten	-11.278
▁öffnet	-11.279
behörden	-11.2791
▁schwanger	-11.2796
▁fokus	-11.2797
▁freimaurer	-11.2797
▁alljährlich	-11.2797
▁ausdehnung	-11.2797
▁beantragt	-11.2797
▁besichtigen	-11.2797
▁diagnose	-11.2797
▁erläutert	-11.2797
▁erörtert	-11.2797
▁gegessen	-11.2797
▁geringfügig	-11.2797
▁hinzugefügt	-11.2797
▁hiphop	-11.2797
▁jungsteinzeit	-11.2797
▁samuel	-11.2797
▁schmeckt	-11.2797
▁slowakei	-11.2797
▁spontan	-11.2797
▁triumph	-11.2797
▁zentimeter	-11.2797
▁zerstörer	-11.2797
▁ineinander	-11.2797
▁vermarktet	-11.2797
▁spanier	-11.2797
▁verursachen	-11.2797
▁durchflossen	-11.2797
▁jesuiten	-11.2797
▁gegebenheiten	-11.2797
▁verschlossen	-11.2797
▁motto	-11.2797
▁demokraten	-11.2797
▁disney	-11.2797
▁wünscht	-11.2797
▁ordnungsgemäß	-11.2797
▁danzig	-11.2798
▁california	-11.2798
▁teilte	-11.2798
▁airport	-11.2798
▁musikvideo	-11.2798
▁spaß	-11.2798
▁geruch	-11.2798
▁gesamtwertung	-11.2798
▁weizen	-11.2798
▁great	-11.2799
▁kontrollieren	-11.2799
▁bremer	-11.2799
▁freigelassen	-11.2799
▁freut	-11.2799
▁werks	-11.2799
▁zugute	-11.28
▁entkommen	-11.28
▁ostseite	-11.2801
▁aufweisen	-11.2801
▁internat	-11.2802
▁charta	-11.2802
▁estnische	-11.2803
▁bsp	-11.2803
▁grammatik	-11.2803
▁anträge	-11.2804
▁klosterkirche	-11.2805
bor	-11.2806
▁bahnsteig	-11.2806
xi	-11.2807
▁vizemeister	-11.2809
▁elb	-11.2809
▁klug	-11.2811
tha	-11.2811
▁jahrestag	-11.2812
schön	-11.2812
▁zurückkommen	-11.2813
ären	-11.2813
▁gebrochen	-11.2814
▁kuppel	-11.2814
▁differenziert	-11.2816
▁gehoben	-11.2816
▁rü	-11.2818
▁verweigert	-11.2819
▁anknüpfen	-11.2822
▁helle	-11.2822
medizin	-11.2823
▁asiatische	-11.2823
▁bundesstaates	-11.2824
▁erschossen	-11.2825
▁bestritten	-11.2827
▁freiherr	-11.2831
▁humanistische	-11.2831
▁verhängt	-11.2831
▁anderson	-11.2834
▁monti	-11.2834
farbe	-11.2836
▁absatz	-11.2837
partnerschaft	-11.2837
▁klinik	-11.2838
cu	-11.2841
▁dieselben	-11.2841
▁feuchte	-11.2843
▁dürften	-11.2843
▁jedermann	-11.2845
▁operationen	-11.2846
▁grundsätzliche	-11.2846
▁jurist	-11.285
sender	-11.2853
▁einzigartig	-11.2855
▁übersetzte	-11.2856
▁vielseitig	-11.2858
▁kontinental	-11.286
▁sachen	-11.2861
▁sag	-11.2863
▁phil	-11.2863
▁hinteren	-11.2864
▁town	-11.2865
▁starr	-11.2865
sprachen	-11.2871
▁empfangen	-11.2872
weltmeister	-11.2873
geb	-11.2873
▁beamte	-11.2874
▁taucht	-11.2875
meter	-11.2876
▁anspruchsvolle	-11.2877
▁mantel	-11.2877
▁saniert	-11.2878
gemäß	-11.2878
funde	-11.2881
▁vin	-11.2884
wirtschaftslehre	-11.2885
▁ast	-11.2885
▁hob	-11.2885
▁vereinbarungen	-11.2886
▁niemanden	-11.2888
press	-11.2893
▁dunkler	-11.2893
▁rechtsstaat	-11.2893
▁einzusetzen	-11.2895
▁chinesisch	-11.2899
▁schließe	-11.2905
▁gewünscht	-11.2913
▁verkehrt	-11.2918
▁ringen	-11.2919
ech	-11.2919
▁spa	-11.2926
▁reparatur	-11.293
▁begegnung	-11.2932
sucht	-11.2933
▁br	-11.2935
▁fotografie	-11.2936
▁bundesländern	-11.2939
▁bezog	-11.294
▁junior	-11.2941
▁ortsnamen	-11.2942
schreiben	-11.2945
▁gabriel	-11.2946
char	-11.2947
hund	-11.2951
▁dieter	-11.2951
professor	-11.2953
ure	-11.2958
gleichen	-11.296
▁pack	-11.2961
ust	-11.2964
▁bohr	-11.2965
termin	-11.2967
▁versuchten	-11.2967
cus	-11.2972
▁formation	-11.2972
▁ausser	-11.2972
▁sitze	-11.2981
▁kürzeste	-11.2982
nar	-11.2984
teilig	-11.2986
▁schönen	-11.2987
asi	-11.2989
abhängig	-11.2993
▁haare	-11.2993
kunden	-11.2997
▁comic	-11.3
▁drehen	-11.3004
▁türme	-11.3008
stall	-11.3009
grenzen	-11.3009
kop	-11.3011
gründung	-11.3011
▁fred	-11.3011
▁hot	-11.3012
braun	-11.3012
bewohner	-11.3017
▁engagements	-11.3018
anzeige	-11.3018
jäger	-11.3019
aufenthalt	-11.3019
teilen	-11.3019
▁sagten	-11.302
sohn	-11.3021
▁mangelt	-11.3021
▁intern	-11.3023
design	-11.3023
steuerung	-11.3024
▁verhinderte	-11.3026
sicher	-11.3026
schuld	-11.3026
▁boy	-11.3028
leute	-11.3029
haushalt	-11.3037
▁biologische	-11.3037
ild	-11.3039
bürger	-11.3039
akte	-11.3041
▁dreht	-11.3042
▁monatlich	-11.3043
▁dynamische	-11.3043
uri	-11.3043
▁garde	-11.3044
▁holt	-11.3052
modelle	-11.3054
▁rh	-11.3056
▁kletter	-11.3061
▁reinhard	-11.3066
▁mild	-11.3066
pädagogik	-11.3073
▁beeinflusste	-11.3074
geist	-11.3077
▁schmalen	-11.3077
▁effekte	-11.3078
halter	-11.3079
▁konzepte	-11.308
▁flüssig	-11.3081
▁abwesenheit	-11.3083
▁berührung	-11.3083
▁besprochen	-11.3083
▁chemnitz	-11.3083
▁edition	-11.3083
▁ernährt	-11.3083
▁greifswald	-11.3083
▁hamilton	-11.3083
▁propaganda	-11.3083
▁resultiert	-11.3083
▁sechzehn	-11.3083
▁sensible	-11.3083
▁verdrängt	-11.3083
▁genießen	-11.3083
▁nordkorea	-11.3083
▁schiedsrichter	-11.3083
▁abwechselnd	-11.3083
▁verschont	-11.3083
▁essays	-11.3083
▁rechtsextrem	-11.3083
▁versichert	-11.3083
▁scheidung	-11.3083
▁generalsekretär	-11.3083
jahresvertrag	-11.3083
▁organisieren	-11.3083
▁überwinden	-11.3083
▁bürokratie	-11.3083
▁gedenktafel	-11.3083
▁jörg	-11.3083
▁referendum	-11.3083
▁schutzpatron	-11.3083
▁symbolisieren	-11.3083
▁wettkampf	-11.3083
pat	-11.3084
▁bedauern	-11.3084
▁drehbücher	-11.3084
▁erschwert	-11.3084
▁gefüllt	-11.3084
▁türken	-11.3085
▁falter	-11.3085
▁privatleben	-11.3085
svorsitzender	-11.3086
▁trick	-11.3087
▁leidet	-11.3087
▁kommandeur	-11.3088
▁rückseite	-11.3088
▁passende	-11.3088
▁atem	-11.3089
▁schwefel	-11.3089
▁zuhause	-11.3092
▁aufzeichnungen	-11.3092
▁frey	-11.3092
▁gewerbegebiet	-11.3093
▁prävention	-11.3093
▁rheinland	-11.3093
▁kennzeichen	-11.3094
▁länglich	-11.3095
▁bebauung	-11.3095
▁häfen	-11.3095
▁hütten	-11.3095
▁offenbach	-11.3096
▁sur	-11.3097
▁wettkämpfe	-11.3099
▁chronik	-11.3099
▁prediger	-11.3099
▁zerfall	-11.3099
▁life	-11.3099
▁monopol	-11.31
▁kun	-11.31
▁ausgedrückt	-11.31
irgendwo	-11.31
▁logisch	-11.3102
mper	-11.3103
▁rainer	-11.3104
▁mönch	-11.3105
ati	-11.3106
läufer	-11.3106
▁beach	-11.3109
▁fieber	-11.3112
▁tarif	-11.3112
▁durchzusetzen	-11.3116
▁starten	-11.3116
▁kolonien	-11.3116
▁beck	-11.3116
▁beschäftigten	-11.3118
▁tausch	-11.3121
▁bewiesen	-11.3122
▁water	-11.3122
▁fing	-11.3123
swert	-11.3125
▁errichteten	-11.3125
▁reichtum	-11.3126
▁vorlegen	-11.3127
▁wichtigkeit	-11.3127
▁toll	-11.3128
größe	-11.313
▁vir	-11.313
▁zeche	-11.3131
▁kontrovers	-11.3135
▁fließen	-11.3137
▁königsberg	-11.3139
▁kos	-11.3141
▁moos	-11.3141
▁binnenmarktes	-11.3142
▁handlungs	-11.3143
reifen	-11.3145
artige	-11.3147
tom	-11.3149
▁kant	-11.315
nny	-11.3151
sperre	-11.3152
▁synchron	-11.3153
▁indes	-11.3161
▁listen	-11.3161
▁schmiede	-11.3162
▁detaillierte	-11.3163
▁organisatorisch	-11.3164
▁wechselten	-11.3164
lem	-11.3165
▁sea	-11.3166
▁anerkannte	-11.3167
▁nik	-11.3169
▁fracht	-11.317
code	-11.317
betriebe	-11.3172
ppe	-11.3173
omo	-11.3175
oberfläche	-11.3176
▁brutal	-11.3177
▁organisierten	-11.3179
volle	-11.3182
ante	-11.3182
▁überstand	-11.3184
▁hnlich	-11.319
▁kartoffeln	-11.3191
kle	-11.3192
▁georgia	-11.3192
▁episoden	-11.3196
ständig	-11.3198
svorschläge	-11.3198
▁beraten	-11.3199
▁müsse	-11.32
▁trainierte	-11.3207
▁grundlegend	-11.3207
▁schw	-11.3207
▁akteure	-11.3208
▁ul	-11.321
▁bernd	-11.3212
▁ratspräsidenten	-11.3212
▁fächer	-11.3215
▁komponenten	-11.3218
▁kalte	-11.3219
▁kalten	-11.322
▁treppe	-11.322
▁herrschen	-11.322
▁kaiserlichen	-11.3223
▁ky	-11.3227
reihen	-11.3228
▁kit	-11.3229
▁ethische	-11.3229
▁weine	-11.323
▁journalistin	-11.3231
ult	-11.3236
▁tel	-11.3237
▁ernannte	-11.3241
▁kurzform	-11.3241
▁prägend	-11.3242
ij	-11.3242
wände	-11.3245
ock	-11.3254
▁syn	-11.3255
branche	-11.326
▁vol	-11.3265
flugzeug	-11.3266
▁harten	-11.3266
▁systematisch	-11.3268
schuss	-11.3269
▁kompetenzen	-11.3274
gebracht	-11.3274
regen	-11.3278
▁riesen	-11.328
stuhl	-11.3283
tos	-11.3285
▁kriege	-11.3285
▁helen	-11.3285
▁produktiv	-11.3289
decke	-11.3289
yo	-11.3289
ssel	-11.329
hoch	-11.329
▁empfehlen	-11.3291
▁räumliche	-11.3295
wappen	-11.3297
▁bush	-11.3298
▁bug	-11.3301
▁gift	-11.3301
▁lateinamerika	-11.3305
▁bergland	-11.3308
metall	-11.331
fassade	-11.3313
angriff	-11.3316
deck	-11.3316
▁cho	-11.3316
▁schaf	-11.3318
▁innenminister	-11.3319
▁frische	-11.3319
röhre	-11.3319
▁photo	-11.3321
elf	-11.3322
▁dumm	-11.3322
deckung	-11.3327
schrei	-11.3328
▁schief	-11.3328
gger	-11.333
lik	-11.333
▁reit	-11.3337
oper	-11.3337
▁bemühte	-11.3341
▁separat	-11.3342
▁gri	-11.3344
lk	-11.3344
▁wortes	-11.3345
blau	-11.3345
▁namensgebend	-11.3347
getriebe	-11.3349
ziert	-11.335
▁wandern	-11.3351
▁muslime	-11.3351
▁punk	-11.3352
▁ausgleich	-11.3352
▁heimisch	-11.3354
▁vietnam	-11.3355
▁verwandte	-11.3356
▁korea	-11.3359
▁kritischen	-11.3361
▁chemisch	-11.3362
rippe	-11.3362
amm	-11.3363
▁stehe	-11.3364
▁erlitten	-11.3372
▁borg	-11.3373
▁ergänzung	-11.3376
▁sara	-11.3376
▁stephan	-11.3377
▁ausgetauscht	-11.3377
▁beleuchtet	-11.3377
▁dissertation	-11.3377
▁gestorben	-11.3377
▁getestet	-11.3377
▁giovanni	-11.3377
▁herkömmliche	-11.3377
▁konfrontiert	-11.3377
▁minnesota	-11.3377
▁unnötig	-11.3377
▁venezuela	-11.3377
▁verstreut	-11.3377
▁vorarlberg	-11.3377
▁zugespitzt	-11.3377
▁zuzuordnen	-11.3377
▁überflüssig	-11.3377
▁ausgerüstet	-11.3377
▁bewirtschaftet	-11.3377
▁albanien	-11.3377
▁wiederaufstieg	-11.3377
▁kompakt	-11.3377
▁münden	-11.3377
▁namhafte	-11.3377
▁angeflogen	-11.3377
▁campingplatz	-11.3377
▁zensur	-11.3377
▁debütalbum	-11.3377
▁garantieren	-11.3377
▁belgrad	-11.3377
▁osteuropa	-11.3377
▁denkbar	-11.3378
▁nennenswerte	-11.3378
▁gedeckt	-11.3378
▁ethik	-11.3378
▁strukturfonds	-11.3378
▁unendlich	-11.3378
▁faust	-11.3379
▁umgehen	-11.3379
▁hochschul	-11.338
▁gefällt	-11.338
▁administrative	-11.338
▁valley	-11.3381
▁mühe	-11.3381
▁fotograf	-11.3382
▁dame	-11.3382
▁heine	-11.3382
▁ehrenmitglied	-11.3382
▁lyon	-11.3383
▁dramatisch	-11.3383
▁elite	-11.3384
stimme	-11.3384
▁professur	-11.3384
▁offenheit	-11.3385
▁gleichstellung	-11.3386
▁nadel	-11.3387
▁schar	-11.3387
▁atelier	-11.3388
pläne	-11.3388
chow	-11.3389
▁prosa	-11.3389
▁kriegsdienst	-11.3389
▁rechen	-11.339
▁singt	-11.3392
▁weltweite	-11.3393
▁bestrebungen	-11.3394
▁anhaltende	-11.3395
▁gerichtsbezirk	-11.3395
▁gezeichnet	-11.3395
▁bahnlinie	-11.3397
▁parameter	-11.3399
▁lok	-11.34
box	-11.34
▁bridge	-11.34
▁informatik	-11.3401
▁kümmern	-11.3401
▁hyper	-11.3402
egislaturperiode	-11.3403
strasse	-11.3404
▁fachbereich	-11.3405
▁dynamik	-11.3405
▁reaktor	-11.3405
link	-11.3405
▁außenpolitisch	-11.3406
▁vorgegeben	-11.3408
▁kreuzer	-11.341
▁widersprechen	-11.3411
▁italiens	-11.3412
▁nachweisen	-11.3412
▁hauptdarsteller	-11.3416
▁passen	-11.3416
▁werft	-11.3418
▁aufgelegt	-11.3418
▁fremden	-11.3418
▁festland	-11.3419
▁putz	-11.342
▁geschenkt	-11.342
▁direkter	-11.3421
▁nebel	-11.3422
▁steinerne	-11.3424
▁fußballer	-11.3427
▁wolle	-11.3428
▁harris	-11.3428
▁ernte	-11.343
▁solist	-11.3432
portal	-11.3433
geschlagen	-11.3433
werfen	-11.3435
▁buslinien	-11.3436
schlüsse	-11.344
zuziehen	-11.3444
▁erstellen	-11.3446
▁badische	-11.3446
▁ruft	-11.3446
▁nebenfluss	-11.3447
ordens	-11.3449
▁ron	-11.345
linde	-11.3452
ruhe	-11.3452
▁gründeten	-11.3453
▁brett	-11.3455
▁erhebt	-11.3456
▁sekunden	-11.3456
▁beschließen	-11.3457
▁ehrgeizige	-11.3458
▁techniken	-11.3463
▁brian	-11.3463
▁einnehmen	-11.347
▁nordwest	-11.3474
▁theoretisch	-11.3474
▁württemberg	-11.3475
▁weitem	-11.3479
▁comics	-11.348
▁tauchen	-11.348
▁angestellt	-11.3481
▁regelt	-11.3484
iti	-11.3484
▁chaos	-11.3487
spruch	-11.3487
konzern	-11.3488
▁akten	-11.3489
▁störungen	-11.3493
▁bachelor	-11.3499
▁strafrecht	-11.35
▁lippe	-11.35
einrichtungen	-11.3503
überschreitende	-11.3504
▁wol	-11.3505
▁erlös	-11.3505
▁verbrauch	-11.3507
▁blauen	-11.3509
▁überregionale	-11.351
▁ausgangs	-11.351
▁verwaltungsrat	-11.351
▁burgen	-11.3512
▁dam	-11.3513
▁begab	-11.3513
▁mitarbeitern	-11.3517
▁beständig	-11.352
posten	-11.3521
kauf	-11.3521
▁inschrift	-11.3529
▁prototyp	-11.353
▁oberösterreich	-11.3532
▁hnlichkeit	-11.3532
▁fundamental	-11.3533
▁ham	-11.3534
▁verfolgte	-11.3537
▁gerüchte	-11.3539
▁sektion	-11.3543
▁unge	-11.3544
▁gewässern	-11.3544
▁gru	-11.3545
▁aggressiv	-11.3551
▁substanzen	-11.3551
▁blättern	-11.3552
▁gran	-11.3553
wick	-11.3555
▁schale	-11.3556
lith	-11.3558
▁verließen	-11.3563
▁verbandes	-11.3564
▁feucht	-11.3565
agentur	-11.3569
▁harz	-11.3569
will	-11.357
▁katzen	-11.357
▁marktes	-11.3575
▁dingen	-11.3579
▁bestandteile	-11.3579
sendungen	-11.358
▁gefieder	-11.358
sgericht	-11.3583
▁beruhen	-11.3585
fertig	-11.3589
▁friedliche	-11.3589
▁messer	-11.3593
▁neckar	-11.3594
▁exemplar	-11.3596
▁iren	-11.3596
▁ries	-11.3598
schauspieler	-11.3604
▁as	-11.3605
zukommen	-11.3607
▁unglück	-11.3607
▁tha	-11.3607
sänger	-11.3608
etti	-11.3611
sgebäude	-11.3611
▁kin	-11.3613
▁tru	-11.3613
synchronsprecher	-11.3613
▁berichtete	-11.3614
gräber	-11.3615
kampagne	-11.3615
ritter	-11.3616
schäden	-11.3616
bremse	-11.3616
giebel	-11.3617
▁verpasst	-11.3618
anschluss	-11.3619
anspruch	-11.3622
▁siegte	-11.3623
▁ac	-11.3624
▁schlage	-11.3625
▁nebeneinander	-11.3626
▁amtliche	-11.3626
▁angestellten	-11.3627
nacht	-11.3629
meyer	-11.3629
▁half	-11.3629
einhalb	-11.3631
▁lar	-11.364
▁ausgehend	-11.3641
fass	-11.3643
▁proteste	-11.3643
energie	-11.3644
▁dog	-11.3646
▁rob	-11.3646
eau	-11.3649
ziele	-11.3649
▁liebt	-11.3653
▁anfragen	-11.3654
▁werkes	-11.3656
arme	-11.3661
▁dur	-11.3661
entwurf	-11.3663
▁migration	-11.367
▁kochen	-11.3672
▁übliche	-11.3674
aga	-11.3675
▁dauerhafte	-11.3677
▁dramatische	-11.3677
▁sparta	-11.3678
nia	-11.3679
▁anfangen	-11.368
berücksichtigung	-11.368
▁aufgeklärt	-11.368
▁ausgeglichen	-11.368
▁edinburgh	-11.368
▁erledigt	-11.368
▁erwerbstätige	-11.368
▁geplündert	-11.368
▁lüneburg	-11.368
▁nahegelegene	-11.368
▁nizza	-11.368
▁railway	-11.368
▁sydney	-11.368
▁systematik	-11.368
▁vertiefung	-11.368
▁zurückzukehren	-11.368
▁abgerundet	-11.368
▁bismarck	-11.368
▁investieren	-11.368
▁trikot	-11.368
▁beurteilt	-11.368
▁ritual	-11.368
▁stettin	-11.368
▁hochwertige	-11.368
▁luzern	-11.368
▁verwechselt	-11.368
▁entgegengesetzt	-11.368
▁verleiht	-11.368
▁stumpf	-11.368
▁versagt	-11.368
▁abgedeckt	-11.368
▁kuratorium	-11.368
▁tumor	-11.368
▁gemeldet	-11.368
▁maurer	-11.368
▁nachtaktiv	-11.368
▁stanley	-11.368
▁häusern	-11.3681
▁zeitlebens	-11.3681
▁rolf	-11.3681
▁krankenhäuser	-11.3681
▁genua	-11.3681
thony	-11.3681
▁hervorgegangen	-11.3681
▁abriss	-11.3681
▁rittergut	-11.3681
▁indigene	-11.3681
▁wehrdienst	-11.3682
▁wohnhäuser	-11.3682
▁endrunde	-11.3682
▁europol	-11.3682
▁motorrad	-11.3682
▁angestrebt	-11.3682
▁registriert	-11.3682
▁schauplatz	-11.3682
▁ohio	-11.3682
▁sichergestellt	-11.3682
▁nachhaltigkeit	-11.3683
streitigkeiten	-11.3684
▁endemisch	-11.3684
▁menschheit	-11.3684
▁befreien	-11.3684
▁kommentiert	-11.3685
▁boten	-11.3685
▁landesweit	-11.3687
▁schweine	-11.3687
▁wolff	-11.3688
▁gespeichert	-11.3689
▁flughäfen	-11.3689
▁kongo	-11.3689
zweck	-11.369
▁vierzig	-11.369
▁roboter	-11.3691
▁dimensionen	-11.3695
▁mitherausgeber	-11.3695
fahrzeug	-11.3699
▁court	-11.3699
▁schema	-11.37
▁widerstands	-11.37
▁mil	-11.3701
▁überführt	-11.3701
▁elternhaus	-11.3701
▁butter	-11.3702
▁rhythmus	-11.3703
▁rechner	-11.3703
▁organist	-11.3704
▁senders	-11.3705
▁nimm	-11.3707
▁augenmerk	-11.3709
▁fahrwerk	-11.3709
▁nationalspieler	-11.3709
▁fachzeitschrift	-11.371
▁wich	-11.3711
ät	-11.3712
▁verglichen	-11.3715
ündig	-11.3715
▁lustig	-11.3715
▁rasche	-11.3717
▁carol	-11.3717
kohäsionspolitik	-11.372
▁lasten	-11.372
▁geladen	-11.372
▁bulgarische	-11.3722
▁vermuten	-11.3722
▁erfolgten	-11.3723
uß	-11.3725
▁tau	-11.3727
▁betracht	-11.3728
▁flossen	-11.3729
▁verlegte	-11.373
▁sendungen	-11.3731
▁endspiel	-11.3736
▁beeren	-11.3737
▁nutzbar	-11.3739
▁schiefer	-11.374
▁moral	-11.374
▁auswertung	-11.3741
scheibe	-11.3743
▁mid	-11.3743
▁lungen	-11.375
▁einwände	-11.375
▁unglücklich	-11.3756
▁verbesserte	-11.3758
▁turner	-11.3761
▁ep	-11.3762
▁spann	-11.3763
▁vornehmen	-11.3763
▁emi	-11.3765
▁times	-11.3766
▁mechanisch	-11.3773
tius	-11.3775
▁lie	-11.3777
▁effizienter	-11.3779
wan	-11.3781
▁reh	-11.3784
▁rheinische	-11.3789
▁böhmische	-11.379
▁körperliche	-11.3791
sphase	-11.3793
▁legitim	-11.3795
▁zeugt	-11.3795
▁mitwirkung	-11.3796
▁kristall	-11.3797
▁sky	-11.38
▁jüdisch	-11.3802
sanlagen	-11.3811
▁hum	-11.3811
teams	-11.3815
▁händler	-11.3816
kaufmannsfamilie	-11.3816
▁kies	-11.3816
verteilung	-11.3818
pra	-11.3819
▁lam	-11.3822
▁einmalig	-11.3826
▁börse	-11.3828
▁eigens	-11.3829
finden	-11.3831
▁bevorzugte	-11.3834
▁zwang	-11.3836
▁witz	-11.3836
▁arch	-11.3836
▁unterlauf	-11.3836
innere	-11.3837
rup	-11.3837
▁verfallen	-11.3838
▁salzburger	-11.3838
▁ecken	-11.3839
▁berühmteste	-11.384
▁promoviert	-11.3842
▁verbands	-11.3843
▁juristen	-11.3843
ble	-11.3844
▁weltliche	-11.3846
▁schlangen	-11.3846
skraft	-11.3851
▁marco	-11.3852
▁expedition	-11.3857
▁agent	-11.3857
▁ablehnen	-11.3857
flüge	-11.3861
▁zwangs	-11.3869
tze	-11.3872
strahlung	-11.3872
blasen	-11.3873
mischung	-11.3873
▁ghana	-11.3874
städter	-11.3878
▁gitarren	-11.3878
▁statistiken	-11.3879
ausschusses	-11.3879
▁betrag	-11.388
▁asch	-11.388
ido	-11.3881
▁bit	-11.3882
▁galten	-11.3883
▁konservative	-11.3886
▁chan	-11.3887
▁gemäßigte	-11.3888
▁mulde	-11.3891
▁geltende	-11.3891
alismus	-11.3891
▁sho	-11.3893
furt	-11.3893
gie	-11.3895
chem	-11.3897
▁asteroiden	-11.39
itation	-11.39
▁til	-11.3902
offizier	-11.3902
▁nationalparks	-11.3904
▁schönste	-11.3905
fische	-11.3908
▁mannschafts	-11.3908
▁kompromisse	-11.3909
▁psychologische	-11.3911
▁vermitteln	-11.3914
▁eber	-11.3918
▁dominieren	-11.3922
rekord	-11.3925
regime	-11.3928
▁einzigartige	-11.3928
manager	-11.3928
aufsicht	-11.3928
gegner	-11.3928
kommando	-11.3929
brüder	-11.3929
abwehr	-11.3929
steuern	-11.393
▁nutzten	-11.393
▁gewählte	-11.393
tunnel	-11.3931
▁kohl	-11.394
▁schlimm	-11.3941
ute	-11.3941
▁lou	-11.3943
▁vollen	-11.3944
▁hai	-11.3945
route	-11.3949
▁modul	-11.3949
▁körpers	-11.3951
lob	-11.3951
▁elementen	-11.3951
▁spur	-11.3952
▁anschlag	-11.3953
▁bru	-11.3957
▁takt	-11.3963
▁zeitplan	-11.3964
▁yu	-11.3968
▁slowakische	-11.3969
▁formell	-11.3971
▁cle	-11.3972
▁antriebs	-11.3976
▁präsent	-11.3977
tanz	-11.3978
▁pastor	-11.3981
▁stadtteile	-11.3985
ors	-11.3986
▁ausgehen	-11.3988
▁bernard	-11.3992
▁cemetery	-11.3992
▁differential	-11.3992
▁erdbeben	-11.3992
▁explizit	-11.3992
▁gelobt	-11.3992
▁gesondert	-11.3992
▁konstantinopel	-11.3992
▁korrigieren	-11.3992
▁obligatorisch	-11.3992
▁osnabrück	-11.3992
▁rechtsprechung	-11.3992
▁santiago	-11.3992
▁tischtennis	-11.3992
▁umgestaltet	-11.3992
▁vernichtet	-11.3992
▁verworfen	-11.3992
▁veröffentlichen	-11.3992
▁zwangsläufig	-11.3992
▁ausflugsziel	-11.3992
▁gewertet	-11.3992
▁ideologie	-11.3992
▁tunesien	-11.3992
▁veraltet	-11.3992
▁wiederholung	-11.3992
▁bäche	-11.3992
▁beurteilen	-11.3993
▁douglas	-11.3993
▁claus	-11.3993
▁krakau	-11.3993
▁magnus	-11.3993
▁herangezogen	-11.3993
▁stuck	-11.3993
▁erdgas	-11.3993
▁vorbereiten	-11.3993
▁zugewiesen	-11.3993
▁treibstoff	-11.3993
▁angesetzt	-11.3993
▁hoffmann	-11.3994
▁anwesenheit	-11.3994
▁radsport	-11.3994
▁niederschläge	-11.3994
▁getreten	-11.3994
▁petrus	-11.3994
▁gäbe	-11.3994
▁morgan	-11.3994
▁günt	-11.3995
▁wohnort	-11.3995
▁wünschenswert	-11.3995
▁gültigkeit	-11.3995
itsch	-11.3995
▁berarbeitung	-11.3996
▁akzeptabel	-11.3996
▁musikhochschule	-11.3996
▁schrittweise	-11.3997
▁common	-11.3998
▁tänzer	-11.3998
▁wahlkampf	-11.3998
▁rauchen	-11.3999
▁kirchspiel	-11.3999
▁gemeinnützige	-11.4
▁weich	-11.4001
▁julian	-11.4001
▁wahrnehmung	-11.4002
▁olympiasieger	-11.4003
▁laien	-11.4003
▁violett	-11.4004
▁costa	-11.4006
liegende	-11.4006
▁fühler	-11.4008
▁auslands	-11.4008
▁käfer	-11.4008
sschwerpunkt	-11.4009
▁angefertigt	-11.4009
▁vorwärts	-11.4011
▁ausgespielt	-11.4011
▁pflegte	-11.4012
label	-11.4012
tia	-11.4013
▁vorgeschrieben	-11.4013
▁unrecht	-11.4014
▁protein	-11.4015
▁republikanische	-11.4017
▁montiert	-11.402
▁mitentscheidung	-11.4024
ehe	-11.4024
▁bürgerschaft	-11.4024
▁schrank	-11.4025
▁trockene	-11.4025
regionen	-11.4025
▁blass	-11.4026
▁beherrschte	-11.4028
▁erobert	-11.4029
ila	-11.4029
▁wozu	-11.4032
▁girl	-11.4033
zutreten	-11.4033
▁texten	-11.4034
ato	-11.4037
▁biologie	-11.4037
▁terroristen	-11.4039
▁seh	-11.404
▁psychische	-11.404
▁anführen	-11.4041
▁verbringen	-11.4041
▁arbeitszeit	-11.4042
▁muslimische	-11.4045
▁erhöhung	-11.4045
▁fürst	-11.4045
▁erfüllung	-11.4047
bringt	-11.4047
▁satzung	-11.405
▁aufgeworfen	-11.405
ausgaben	-11.4051
▁log	-11.4055
▁steinen	-11.4057
tani	-11.406
▁umsatz	-11.4061
lio	-11.4064
▁rebellen	-11.4072
loch	-11.4074
▁jahreszeit	-11.4074
zahlungen	-11.4076
▁hauptmann	-11.4076
▁quadratische	-11.4077
▁senioren	-11.4081
▁bast	-11.4082
geschlossen	-11.4085
roth	-11.4087
▁maximilian	-11.4088
▁hil	-11.4089
▁eg	-11.4091
▁verarbeitung	-11.4094
▁willy	-11.4094
ulus	-11.4096
europäische	-11.4096
mission	-11.4097
▁aufsehen	-11.4102
▁geographische	-11.4104
▁häufige	-11.4105
seiten	-11.4109
▁gottesdienste	-11.411
▁bäumen	-11.4111
geschrieben	-11.4115
▁sparte	-11.4117
azar	-11.4117
▁zinn	-11.4119
▁spiels	-11.4119
▁bil	-11.412
illy	-11.4122
▁geister	-11.4125
▁kündigte	-11.4129
ließ	-11.4129
▁berges	-11.4132
▁garantie	-11.4132
▁blütenstände	-11.4135
▁beglückwünsche	-11.4137
alpen	-11.4139
▁reiner	-11.4139
▁rhe	-11.4141
▁gel	-11.4142
▁alphabet	-11.4143
▁act	-11.4143
▁löwe	-11.4144
▁zufluss	-11.4145
▁stände	-11.4147
weil	-11.4147
▁publikation	-11.415
▁drin	-11.415
▁arbeitsgruppe	-11.415
▁vernünftige	-11.4151
▁erwin	-11.416
▁nor	-11.4161
▁südost	-11.4162
▁deutung	-11.4162
▁anteile	-11.4164
gate	-11.4164
▁söhnen	-11.4164
▁ny	-11.4165
▁prager	-11.4165
▁stecken	-11.4165
▁schickte	-11.4168
▁platziert	-11.4171
▁juristisch	-11.4171
▁romanen	-11.4174
▁genres	-11.4176
▁vize	-11.4179
▁geschossen	-11.418
▁schlank	-11.418
▁verdächtig	-11.418
brand	-11.4181
▁mobile	-11.4182
▁anfällig	-11.4182
▁bedingung	-11.4183
schüler	-11.4183
▁berleben	-11.4184
mol	-11.4185
▁säule	-11.4185
mpt	-11.4185
▁por	-11.4186
▁grat	-11.4187
▁klingen	-11.419
▁datenbank	-11.4192
▁kreuzung	-11.4197
▁achsen	-11.4204
schul	-11.4207
▁sonntags	-11.4208
▁strikt	-11.4208
▁erzählen	-11.4209
▁reb	-11.421
▁zeigten	-11.4211
sträger	-11.4211
▁jahrhunderts	-11.4213
▁derjenige	-11.4214
niveau	-11.4214
▁kir	-11.4218
▁sitzend	-11.4221
▁sauber	-11.4222
▁sprachliche	-11.4223
▁innovative	-11.4224
▁zeichnung	-11.4225
▁begleiten	-11.4226
▁gera	-11.423
führen	-11.4231
reden	-11.4234
rechtssicherheit	-11.4236
▁kapazität	-11.4237
thi	-11.4238
frau	-11.4238
tausend	-11.4239
hoheit	-11.424
▁orient	-11.424
beruf	-11.4248
polizei	-11.4248
▁res	-11.4248
pendler	-11.4249
▁überleben	-11.425
gäste	-11.425
korps	-11.425
bombe	-11.4251
bestände	-11.4252
minute	-11.4252
▁julia	-11.4256
▁hörte	-11.4257
verordnung	-11.4257
▁finanzen	-11.4258
▁gegenden	-11.4261
▁erarbeiten	-11.4262
▁mul	-11.4268
▁fahrzeugen	-11.4272
rhein	-11.4273
stieg	-11.4276
▁zuordnung	-11.4276
römische	-11.4278
▁hex	-11.4278
▁denkt	-11.4281
▁trockenen	-11.4282
singen	-11.4284
▁zeitungs	-11.4285
▁weihnachts	-11.4287
▁part	-11.4288
▁partien	-11.429
▁autonomie	-11.429
▁langsamer	-11.4291
rate	-11.4291
usch	-11.4292
▁kent	-11.4295
▁münz	-11.4297
▁radikalen	-11.4297
▁amtes	-11.4298
illi	-11.4298
▁warf	-11.4299
pack	-11.4301
▁inschriften	-11.4302
▁studios	-11.4304
▁country	-11.4306
stärkung	-11.431
gelenk	-11.4313
▁sultan	-11.4314
krone	-11.4315
adiärsymmetrisch	-11.4315
▁aserbaidschan	-11.4315
▁ausschlaggebend	-11.4315
▁bereinstimmung	-11.4315
▁bewältigen	-11.4315
▁blattspreite	-11.4315
▁blüht	-11.4315
▁broadway	-11.4315
▁chronologisch	-11.4315
▁jenseits	-11.4315
▁missouri	-11.4315
▁oberirdisch	-11.4315
▁referenz	-11.4315
▁schlesien	-11.4315
▁schröder	-11.4315
▁singapur	-11.4315
▁soundtrack	-11.4315
▁torhüter	-11.4315
▁unverheiratet	-11.4315
▁verkleidet	-11.4315
▁verschwindet	-11.4315
▁zufällig	-11.4315
▁berührt	-11.4315
▁biblische	-11.4315
▁zugeteilt	-11.4315
▁ausüben	-11.4315
▁fresken	-11.4315
▁zutiefst	-11.4315
▁plural	-11.4315
▁verborgen	-11.4315
▁tagsüber	-11.4315
▁geometrische	-11.4315
▁rheinlandpfalz	-11.4315
▁erheben	-11.4315
▁haftstrafe	-11.4315
▁spätesten	-11.4315
übertragung	-11.4315
▁schengen	-11.4315
▁streik	-11.4315
▁angreifer	-11.4315
▁tragflächen	-11.4315
▁bedauere	-11.4315
▁bereiste	-11.4315
▁fuchs	-11.4316
▁verleihen	-11.4316
▁freilassung	-11.4316
▁norddeutschland	-11.4316
▁dollar	-11.4316
▁freigesprochen	-11.4316
▁fürstentum	-11.4316
▁lobby	-11.4316
▁firmensitz	-11.4316
▁legion	-11.4316
▁materielle	-11.4316
▁hinterlassen	-11.4317
▁konsum	-11.4317
▁dargelegt	-11.4317
▁conrad	-11.4317
▁hohl	-11.4317
▁kunstakademie	-11.4317
▁festzustellen	-11.4318
▁steinbruch	-11.4319
▁unterdrückt	-11.4319
▁vergessenheit	-11.4319
▁sudan	-11.432
▁jugendstil	-11.432
▁verweist	-11.4321
▁uniform	-11.4321
▁berwind	-11.4322
▁gebogen	-11.4322
▁fünfzig	-11.4323
▁lebensende	-11.4323
fanteriedivision	-11.4325
▁memorial	-11.4325
▁redezeit	-11.4325
card	-11.4326
▁fertigte	-11.4326
▁erlangt	-11.4327
▁vorgelagert	-11.4328
▁edel	-11.4328
▁albanische	-11.4328
▁untersuchen	-11.4328
▁henri	-11.4329
oxid	-11.433
▁beunruhigend	-11.433
▁drückt	-11.4332
▁nassau	-11.4332
▁empfänger	-11.4332
▁kanäle	-11.4333
▁blockiert	-11.4333
▁zusammenbruch	-11.4334
▁exportiert	-11.4334
▁gehäuse	-11.4335
▁lärm	-11.4337
hren	-11.4337
▁wasserstoff	-11.4339
▁zitat	-11.4339
▁geheimdienst	-11.4339
▁südafrikanische	-11.434
▁eintracht	-11.4341
▁adresse	-11.4342
▁kaserne	-11.4342
▁begabung	-11.4342
▁erzeugnisse	-11.4344
eisenbahnstrecke	-11.4344
▁konvention	-11.4346
zentren	-11.4347
kehr	-11.4348
▁namensgebende	-11.4348
lippe	-11.435
▁feldzug	-11.4352
▁saure	-11.4353
▁dorfkirche	-11.4353
▁warm	-11.4354
▁kno	-11.4357
▁dialekte	-11.4359
▁weiss	-11.4359
▁mus	-11.4359
▁gala	-11.436
▁grundstein	-11.4362
▁vollzogen	-11.4362
▁anbieten	-11.4363
▁regulierung	-11.4363
pft	-11.4364
tschaftspolitik	-11.4365
flugzeuge	-11.4366
▁lot	-11.4366
▁schlimmer	-11.4366
▁malta	-11.4367
▁klassiker	-11.4369
▁inhaber	-11.437
dichte	-11.437
▁over	-11.4372
▁glen	-11.4375
energieeffizienz	-11.4375
▁alphabetisch	-11.4377
▁landeskirche	-11.4378
▁stimmte	-11.4379
▁neunte	-11.4383
▁strahlung	-11.4386
▁sau	-11.4389
▁schützt	-11.439
▁neuro	-11.439
▁granit	-11.4394
▁roy	-11.4394
▁erringen	-11.4397
▁eich	-11.4403
▁siege	-11.4408
▁fachhochschule	-11.4408
▁ausstellungs	-11.441
stimmen	-11.4411
▁margaret	-11.4411
▁bedienen	-11.4412
▁vereinsfarbe	-11.4412
▁becker	-11.4413
▁anbindung	-11.4414
▁kr	-11.4417
▁bär	-11.4418
tagen	-11.442
▁süddeutsche	-11.4422
▁zugerechnet	-11.4422
▁sitt	-11.4427
▁paarung	-11.4428
▁nähere	-11.4429
▁augsburger	-11.4429
▁irgendein	-11.443
truppe	-11.4436
abzeichen	-11.4437
▁angehen	-11.4441
▁flieger	-11.4442
▁lauter	-11.4442
▁zahlt	-11.4443
gerecht	-11.4443
▁schlafen	-11.4445
▁weigerte	-11.4447
▁stützt	-11.4454
zelle	-11.446
▁unterrichts	-11.446
▁vergabe	-11.4465
far	-11.4465
▁altes	-11.4465
▁erforderlichen	-11.4466
staatliche	-11.4466
▁schwerin	-11.4467
▁prägen	-11.4468
▁schlange	-11.4468
show	-11.4468
▁pet	-11.4472
sprecher	-11.4477
▁langem	-11.4477
sbeziehungen	-11.4478
richtungen	-11.448
▁herab	-11.4481
▁hnliches	-11.4482
▁göttin	-11.4482
walde	-11.4485
zahlung	-11.4494
▁homosexuelle	-11.4494
hut	-11.4495
tzt	-11.4497
▁kräftige	-11.4497
ans	-11.4499
▁transparente	-11.4499
▁empore	-11.4499
▁skulptur	-11.45
▁clark	-11.45
▁lokomotive	-11.45
▁these	-11.4501
horst	-11.4504
zyklus	-11.4505
▁fle	-11.4509
top	-11.4513
rath	-11.4513
▁ausgewählte	-11.4516
▁gründlich	-11.4518
lly	-11.452
sverhältnisse	-11.452
▁samstag	-11.4522
▁beliebter	-11.4524
▁nördlichste	-11.4528
▁wüste	-11.4528
are	-11.4529
stat	-11.453
▁cre	-11.4531
▁decke	-11.4533
▁bauart	-11.4534
kreise	-11.4534
▁walt	-11.4535
▁interview	-11.4536
vorschlag	-11.4537
▁mathematiker	-11.4538
▁aal	-11.4539
eira	-11.4542
vorsitzende	-11.4542
▁gebühren	-11.4544
▁qualifikations	-11.4546
▁geige	-11.4549
igo	-11.455
störung	-11.4554
▁regiment	-11.4556
sabkommen	-11.4556
brunn	-11.4557
▁seil	-11.4561
▁plante	-11.4564
beutel	-11.4567
▁dev	-11.4568
spektrum	-11.4568
▁vogt	-11.4568
schacht	-11.4569
▁mittelalters	-11.457
▁akt	-11.457
▁beträchtlich	-11.4571
▁ringer	-11.4575
▁besiegt	-11.4576
▁einstellen	-11.4577
denkmal	-11.4577
könig	-11.4577
▁einhalten	-11.4577
▁effiziente	-11.4578
muster	-11.4579
▁schlechtes	-11.458
trägt	-11.4581
wohn	-11.4582
analyse	-11.4584
▁beweise	-11.4585
▁dunklen	-11.4586
gesang	-11.4586
▁stürzte	-11.459
▁solle	-11.4599
▁lö	-11.4599
▁betreute	-11.4601
▁landschaftlich	-11.4601
kontrolle	-11.461
▁optisch	-11.4611
legt	-11.4615
bur	-11.4625
geschoben	-11.4627
▁dutzend	-11.4629
gebieten	-11.463
▁maxim	-11.4634
anbau	-11.4635
▁stabilitäts	-11.4635
▁ubahn	-11.4635
gard	-11.4639
▁nutz	-11.464
▁resonanz	-11.4643
▁schock	-11.4645
▁francis	-11.4648
▁achtzehn	-11.4648
▁annähernd	-11.4648
▁behinderung	-11.4648
▁colorado	-11.4648
▁departamento	-11.4648
▁entwässert	-11.4648
▁erläutern	-11.4648
▁individuen	-11.4648
▁investiert	-11.4648
▁renoviert	-11.4648
▁saddam	-11.4648
▁schädel	-11.4648
▁überwunden	-11.4648
▁detroit	-11.4648
▁evakuiert	-11.4648
▁geordnet	-11.4648
▁hongkong	-11.4648
▁kürzlich	-11.4648
▁lächerlich	-11.4648
▁mittelständisch	-11.4648
ular	-11.4648
▁enzym	-11.4648
▁keyboard	-11.4648
▁verwüstet	-11.4648
▁rechtfertigen	-11.4648
▁weitreichende	-11.4648
▁aufgetreten	-11.4648
▁marshall	-11.4648
▁schlüpfen	-11.4649
▁norbert	-11.4649
▁staatsexamen	-11.4649
▁theologe	-11.4649
▁vorangegangene	-11.4649
▁sprachgebrauch	-11.4649
▁überschritten	-11.4649
▁initiiert	-11.4649
▁bemalt	-11.4649
▁edmund	-11.4649
▁schlesische	-11.4649
▁raupen	-11.4649
▁urban	-11.4649
▁tabellenplatz	-11.465
▁gotha	-11.465
▁ryan	-11.465
▁gewaltsam	-11.465
ois	-11.4651
▁moldau	-11.4651
▁sierra	-11.4651
▁philosoph	-11.4651
▁instanz	-11.4651
▁löslich	-11.4651
▁verhält	-11.4651
▁tuberkulose	-11.4652
▁bezirksamt	-11.4652
▁ausbilden	-11.4652
▁webseite	-11.4652
▁grabmal	-11.4652
▁sichtweise	-11.4652
▁sarah	-11.4653
wandel	-11.4653
▁schönheit	-11.4653
▁niedergang	-11.4653
▁gefährdung	-11.4654
▁tipp	-11.4654
▁lady	-11.4654
▁datiert	-11.4655
▁nova	-11.4657
▁einzugsgebiet	-11.4657
▁fromm	-11.4657
▁langhaus	-11.4658
▁vorliegt	-11.4658
standsmitglied	-11.4658
▁vorgetragen	-11.4658
▁admiral	-11.4659
▁schauspielerei	-11.4659
▁charakterisiert	-11.4659
▁gremien	-11.4661
▁billy	-11.4661
friedenstellend	-11.4661
▁installation	-11.4663
omi	-11.4663
▁stirn	-11.4663
▁fressen	-11.4663
▁baltische	-11.4664
▁steiermark	-11.4665
▁streben	-11.4666
▁hauptaufgabe	-11.4666
▁faire	-11.4667
▁schnellen	-11.4668
▁tierschutz	-11.4669
gleis	-11.4671
▁auskunft	-11.4671
▁teleskop	-11.4672
▁verdienst	-11.4672
▁taktik	-11.4672
▁luis	-11.4672
▁stiel	-11.4672
▁infanterie	-11.4672
▁erbracht	-11.4673
▁kegel	-11.4673
▁vorzulegen	-11.4674
▁besonderheiten	-11.4674
ava	-11.4675
▁mauerwerk	-11.4675
glas	-11.4675
▁vektor	-11.4676
▁kritisieren	-11.4676
▁forschte	-11.4677
▁kultiviert	-11.4677
▁agierte	-11.4678
▁newton	-11.4679
▁paulus	-11.4679
ique	-11.4679
▁strategien	-11.468
▁landrat	-11.4682
ald	-11.4684
▁volumen	-11.4685
▁mail	-11.4686
▁gekauft	-11.4687
▁begleiter	-11.4687
ule	-11.4688
▁ideale	-11.4688
▁anzuwenden	-11.469
▁drachen	-11.4691
▁intelligent	-11.4691
▁betätigt	-11.4693
▁arbeitsplätzen	-11.4694
genre	-11.4697
▁zahlung	-11.4698
▁eingebunden	-11.4698
▁plant	-11.4699
▁büros	-11.4702
▁respektieren	-11.4704
▁stadtverwaltung	-11.4706
▁gliederung	-11.4707
▁geworfen	-11.4711
lagerung	-11.4712
▁flüge	-11.4713
▁kommend	-11.4713
▁vorbilder	-11.4713
▁bildschirm	-11.4715
▁kommunisten	-11.4719
▁treiben	-11.4719
▁farmer	-11.4727
▁kümmert	-11.4727
▁verletzte	-11.4734
▁emma	-11.4735
phon	-11.4738
▁streich	-11.4739
▁künstlerin	-11.4739
▁überlebten	-11.474
regeln	-11.4741
▁christentum	-11.4742
▁fal	-11.4742
räumen	-11.4745
▁dünne	-11.4746
uld	-11.4747
▁straßenverkehr	-11.4748
▁führend	-11.4749
bru	-11.4749
▁astronomische	-11.4755
▁andert	-11.4757
▁traditionen	-11.4759
▁wasch	-11.4761
▁ausbeut	-11.4764
grab	-11.4766
▁lauten	-11.4767
▁iranische	-11.4771
▁symbole	-11.4771
▁ib	-11.4774
▁scharfe	-11.4775
▁bitter	-11.4776
▁vorjahr	-11.4777
▁besatzungs	-11.4778
szenen	-11.478
▁mau	-11.478
▁wohin	-11.478
wid	-11.4781
▁worms	-11.4782
meisters	-11.4788
▁beschwerden	-11.479
▁fleck	-11.4792
▁mak	-11.4792
▁mögen	-11.4796
▁reim	-11.4799
▁heimlich	-11.48
ministeriums	-11.4806
sformen	-11.4807
▁getränke	-11.4809
▁bewahrt	-11.4813
▁wilde	-11.4817
omen	-11.4818
▁repräsentative	-11.4819
▁magazine	-11.4825
▁einführen	-11.4826
dos	-11.4827
▁sparen	-11.4833
süd	-11.4837
verhältnisse	-11.4837
▁wurzel	-11.4837
▁schafe	-11.4839
ikon	-11.484
swerte	-11.484
ness	-11.4841
▁korrekte	-11.4844
geworfen	-11.4845
▁vorbehalte	-11.4846
ausstattung	-11.4846
▁anzeigen	-11.4848
uwe	-11.4851
fix	-11.4852
fra	-11.4853
ermann	-11.4853
angehörige	-11.4856
ographische	-11.4858
städt	-11.4859
▁impuls	-11.4859
▁günstige	-11.4862
▁brauche	-11.4865
▁glatte	-11.4866
spflicht	-11.4866
▁eingehend	-11.4867
▁anzeige	-11.4869
bieten	-11.487
▁luci	-11.4871
▁spielern	-11.4871
▁image	-11.4874
▁well	-11.4875
▁gelehrten	-11.4876
▁britisch	-11.488
▁düsseldorfer	-11.488
▁dicke	-11.4884
▁einher	-11.4886
maximilians	-11.4888
▁sinnlos	-11.4891
▁lutherische	-11.4892
höfe	-11.4894
▁wählt	-11.4896
▁brü	-11.4896
▁grundbesitz	-11.49
freie	-11.4903
▁philip	-11.4906
▁extreme	-11.4911
▁sechste	-11.4913
entschlossenheit	-11.492
listen	-11.492
▁wirbel	-11.4921
vögel	-11.4923
pokal	-11.4924
▁fühlte	-11.4925
▁bindung	-11.4928
praxis	-11.4929
klub	-11.4929
gewalt	-11.493
▁erneute	-11.493
▁rem	-11.4931
ching	-11.4935
kurve	-11.4936
▁carr	-11.4937
king	-11.4942
verschmutzung	-11.4943
vater	-11.4944
ries	-11.4944
peter	-11.4945
▁ausländer	-11.4947
▁cel	-11.4948
▁adams	-11.495
▁wacht	-11.4953
▁unterschrift	-11.4959
▁bersicht	-11.4959
▁tschechisch	-11.4959
stechnik	-11.4959
ters	-11.4959
yn	-11.496
▁trompete	-11.4963
▁blank	-11.4969
srate	-11.4971
gy	-11.4974
▁aufwändig	-11.4976
una	-11.4977
▁pflegt	-11.4982
▁bet	-11.4983
▁treue	-11.4983
▁erwerben	-11.4986
▁südkorea	-11.4988
aner	-11.4988
▁trauer	-11.4989
▁gregor	-11.499
▁brennstoff	-11.4992
▁german	-11.4992
▁beeindruckt	-11.4993
▁benachteiligt	-11.4993
▁beschlagnahmt	-11.4993
▁dazugehörige	-11.4993
▁enttäuschend	-11.4993
▁ermordung	-11.4993
▁foundation	-11.4993
▁kärnten	-11.4993
▁liechtenstein	-11.4993
▁nacheinander	-11.4993
▁seltsam	-11.4993
▁unterworfen	-11.4993
▁zwerg	-11.4993
▁merkwürdig	-11.4993
▁rassismus	-11.4993
▁rugby	-11.4993
▁verzehr	-11.4993
▁castle	-11.4993
▁erregte	-11.4993
▁ganzrandig	-11.4993
▁spüren	-11.4993
▁diktator	-11.4993
▁verhaftung	-11.4993
▁bananen	-11.4993
▁verwandelt	-11.4993
▁bewirken	-11.4993
▁länderspiele	-11.4993
▁bayreuth	-11.4993
▁ungewiss	-11.4993
▁calvin	-11.4993
▁luftangriffe	-11.4994
▁motorräder	-11.4994
▁panzerdivision	-11.4994
käufe	-11.4994
▁gottlieb	-11.4994
▁narbe	-11.4994
▁misserfolg	-11.4994
▁verpflichten	-11.4994
▁fünfzählig	-11.4994
▁kernenergie	-11.4994
vorsteher	-11.4994
▁apfel	-11.4994
▁markenzeichen	-11.4994
▁aufhören	-11.4995
▁beinhalten	-11.4995
▁kulturdenkmal	-11.4995
▁studienreisen	-11.4995
▁bahnhofsgebäude	-11.4995
▁zurückgeführt	-11.4995
aktivitäten	-11.4996
▁fortbildung	-11.4996
blicherweise	-11.4996
▁innenhof	-11.4996
▁motorsport	-11.4997
▁straßenrennen	-11.4997
▁bewerbung	-11.4997
▁respektiert	-11.4997
stetten	-11.4997
▁verbracht	-11.4997
▁subjektiv	-11.4997
filmen	-11.4998
▁belagerung	-11.4998
▁waldfriedhof	-11.4998
ächtig	-11.4999
▁wittenberg	-11.4999
bil	-11.5
▁expansion	-11.5001
▁attentat	-11.5001
ritz	-11.5002
▁griffel	-11.5003
▁musikstil	-11.5003
▁lehrt	-11.5003
▁ermitteln	-11.5003
▁quartett	-11.5003
dio	-11.5005
▁sekretär	-11.5005
▁jungtiere	-11.5006
▁frühling	-11.5006
▁unsicherheit	-11.5006
▁saarbrücken	-11.5006
▁brok	-11.501
▁befugnisse	-11.5011
▁gerichtsbarkeit	-11.5011
▁tonnen	-11.5011
▁kirchenschiff	-11.5011
freien	-11.5012
schieben	-11.5013
▁grundwasser	-11.5013
stark	-11.5013
▁lebensräume	-11.5014
▁verfilmung	-11.5015
▁anregung	-11.5018
▁terrasse	-11.5018
gler	-11.5019
▁mega	-11.502
▁dreieckig	-11.5021
▁affäre	-11.5021
▁ever	-11.5021
▁präsenz	-11.5022
▁heilig	-11.5022
▁ukrainische	-11.5025
▁ziegen	-11.5028
▁krefeld	-11.5028
▁kapsel	-11.503
▁gerufen	-11.5031
▁hauptstraße	-11.5031
▁heu	-11.5033
▁schaut	-11.5033
rorts	-11.5036
▁fundament	-11.5037
▁schatz	-11.5037
springen	-11.5039
▁balken	-11.504
▁schäfer	-11.5041
ierende	-11.5042
start	-11.5044
▁ferr	-11.5045
▁fußballnational	-11.5046
▁puppen	-11.5047
▁niederschlag	-11.5048
▁experimente	-11.5049
ketten	-11.505
▁stro	-11.5053
▁formale	-11.5053
▁arena	-11.5055
stationen	-11.5057
gehende	-11.5061
▁zeug	-11.5061
▁zentren	-11.5062
▁torf	-11.5066
gli	-11.5068
▁stuhl	-11.507
dustrialisierung	-11.5072
▁tauf	-11.5072
▁beträchtliche	-11.5073
sstruktur	-11.5073
▁kaiserin	-11.5075
▁rumänische	-11.5079
heil	-11.508
▁lasse	-11.508
▁athleten	-11.508
immer	-11.5084
rechtlich	-11.5087
▁schachspiel	-11.5088
▁dienststelle	-11.5089
handlung	-11.5091
aria	-11.5094
wellen	-11.5096
ström	-11.5098
▁komplexität	-11.5099
▁standorten	-11.5099
▁kiefern	-11.5099
▁agieren	-11.5103
▁russ	-11.5105
▁vorherrschende	-11.5105
variante	-11.5105
▁läufer	-11.5106
▁nordischen	-11.5107
▁schmerz	-11.511
▁konferenzen	-11.5111
▁kath	-11.5119
▁entstandene	-11.512
▁verbleib	-11.5121
▁alan	-11.5122
▁kämpft	-11.5122
▁met	-11.5128
▁kabarett	-11.5131
▁trink	-11.5134
▁alliierten	-11.5138
gasse	-11.5138
▁russen	-11.5142
▁unterarten	-11.5143
▁herrschte	-11.5145
▁frühesten	-11.5147
▁schuhe	-11.515
fell	-11.5153
lied	-11.5155
▁trinken	-11.5156
▁verbleibende	-11.5159
bevölkerungszahl	-11.5159
▁eignet	-11.5159
▁mexikanische	-11.5166
▁leon	-11.5167
▁bedürfnisse	-11.5168
▁andrea	-11.517
▁bestreite	-11.517
▁peri	-11.5171
▁ausfall	-11.5172
▁bundesländer	-11.5173
boote	-11.5174
zeichnung	-11.5174
▁ähnliches	-11.5176
lesen	-11.5177
▁gal	-11.5181
▁braune	-11.5183
▁rufe	-11.5183
▁europäisch	-11.5183
▁messungen	-11.5184
verletzungen	-11.5188
▁konstant	-11.519
klo	-11.5191
sminister	-11.5193
▁verlage	-11.5195
▁wettbewerben	-11.5196
▁bekenntnis	-11.5199
▁behauptung	-11.52
faktor	-11.52
▁beirat	-11.52
▁flut	-11.5204
main	-11.5205
▁metz	-11.5206
▁dornen	-11.5206
▁fiktive	-11.5206
▁verzögerung	-11.5207
▁einschränkung	-11.5207
wärts	-11.5208
▁komödie	-11.5212
traub	-11.5212
swahl	-11.5213
▁gemeinschaften	-11.5213
standort	-11.5224
cup	-11.5225
▁sing	-11.5225
▁geographisch	-11.5227
kul	-11.5232
▁intellektuelle	-11.5234
mengen	-11.5235
rechts	-11.5246
haut	-11.5247
wed	-11.5247
öffnung	-11.5247
hafte	-11.5257
▁messung	-11.5257
▁dichtung	-11.5261
adel	-11.5262
▁fundamente	-11.5265
▁aufführungen	-11.5265
▁rechteckige	-11.5265
▁bekanntes	-11.5269
▁moderiert	-11.5272
▁heiz	-11.5273
▁pir	-11.5274
herren	-11.5277
kurse	-11.5278
rott	-11.5279
glück	-11.5279
bü	-11.5279
▁steck	-11.5279
▁begriffen	-11.5281
logisch	-11.5281
probleme	-11.5282
tochter	-11.5283
rundfahrt	-11.5285
quote	-11.5285
plateau	-11.5285
finale	-11.5286
krebs	-11.5286
brief	-11.5286
▁biel	-11.5288
milch	-11.5288
▁leichen	-11.5288
pause	-11.5288
▁vorburg	-11.529
streit	-11.529
▁genauere	-11.5295
motiv	-11.5296
▁journalistische	-11.5298
▁gian	-11.5299
▁manuskript	-11.5299
▁angrenzende	-11.5299
▁pfeil	-11.5302
imo	-11.5304
▁konzentrations	-11.5304
salz	-11.5307
▁afrikas	-11.5308
stellungen	-11.5309
▁effizient	-11.5309
▁gehalt	-11.531
▁auffällige	-11.5313
federn	-11.5314
▁statuen	-11.5314
▁field	-11.5318
▁dio	-11.5319
▁beobachtungen	-11.5321
iker	-11.5324
▁röntgen	-11.5326
ins	-11.5327
▁vil	-11.5331
▁nad	-11.5333
▁umgebende	-11.5333
opfer	-11.5334
▁franco	-11.5334
▁sumpf	-11.5336
▁offener	-11.5336
▁jahrtausend	-11.5336
bek	-11.5342
▁geduld	-11.5343
▁rohstoff	-11.5344
▁bündnis	-11.5345
▁lorenz	-11.5345
stöße	-11.5345
▁fußgänger	-11.5349
▁abgetrennt	-11.535
▁analysiert	-11.535
▁berraschung	-11.535
▁bewährt	-11.535
▁chemiker	-11.535
▁durcheinander	-11.535
▁fortgeschritten	-11.535
▁generalmajor	-11.535
▁gesendet	-11.535
▁kentucky	-11.535
▁kolumbien	-11.535
▁kostengünstig	-11.535
▁modifiziert	-11.535
▁montreal	-11.535
▁nachdrücklich	-11.535
▁rekonstruiert	-11.535
▁sachsenanhalt	-11.535
▁stralsund	-11.535
▁unbedeutend	-11.535
▁unvollständig	-11.535
▁verlierer	-11.535
▁vernunft	-11.535
▁vertreibung	-11.535
▁verwickelt	-11.535
▁gastronomie	-11.535
▁maastricht	-11.535
▁suizid	-11.535
▁verbannt	-11.535
▁legendäre	-11.535
▁clara	-11.535
▁rechnungshof	-11.535
▁traurig	-11.535
▁platon	-11.535
▁parlamentarier	-11.535
▁donnerstag	-11.535
▁potenzial	-11.535
▁hussein	-11.535
▁beseitigen	-11.535
▁nebenwirkungen	-11.535
▁bowl	-11.535
▁freizügigkeit	-11.5351
▁hörfunk	-11.5351
▁linux	-11.5351
▁irrtum	-11.5351
▁artenvielfalt	-11.5351
▁graubraun	-11.5351
▁fahrgäste	-11.5351
▁klammern	-11.5351
▁synchronisiert	-11.5351
▁volksrepublik	-11.5351
▁russell	-11.5351
▁bewerten	-11.5351
▁stewart	-11.5351
▁souveränität	-11.5351
▁weißrussland	-11.5351
▁robinson	-11.5351
▁stress	-11.5351
▁zurückgekehrt	-11.5352
▁stattfindet	-11.5352
▁arbeitskräfte	-11.5352
▁bereitgestellt	-11.5352
▁wortmeldung	-11.5352
▁lehrtätigkeit	-11.5352
▁palais	-11.5352
▁klarinette	-11.5352
▁haupteingang	-11.5352
▁prix	-11.5352
▁kleingewerbe	-11.5353
▁argumentation	-11.5353
▁hochstift	-11.5354
▁römerzeit	-11.5354
▁zierpflanze	-11.5354
▁audio	-11.5354
▁teilgenommen	-11.5354
▁nickel	-11.5356
▁verstärkung	-11.5356
▁landesregierung	-11.5356
▁buddhismus	-11.5356
▁thüringer	-11.5356
▁zelt	-11.5357
▁forest	-11.5357
▁wartung	-11.5357
▁beförderung	-11.5358
truppen	-11.5358
▁reichstag	-11.5359
wirtschaftlichen	-11.536
ple	-11.536
▁allianz	-11.5361
▁sozusagen	-11.5361
▁stellenwert	-11.5361
dreh	-11.5361
▁haushaltsplan	-11.5361
▁ey	-11.5361
▁überholt	-11.5363
▁kirchenkreis	-11.5364
▁roland	-11.5364
▁sechsmal	-11.5364
▁basilika	-11.5366
▁army	-11.5366
▁fauna	-11.5367
▁treibt	-11.5367
▁hartmann	-11.5368
▁genauigkeit	-11.537
▁befreiung	-11.537
stehenden	-11.537
▁gewehr	-11.5371
▁saarland	-11.5371
▁lampe	-11.5372
▁gängige	-11.5374
▁lachen	-11.5378
▁entwickler	-11.5378
▁ala	-11.5379
▁walk	-11.5382
sverhandlungen	-11.5382
▁campus	-11.5383
▁gewölbe	-11.5385
▁mix	-11.5386
▁bauzeit	-11.5386
▁buddhistische	-11.5387
▁ay	-11.5389
▁zurecht	-11.539
pal	-11.5391
▁urheberrecht	-11.5392
▁juan	-11.5392
▁stützpunkt	-11.5392
iva	-11.5393
▁schnittstelle	-11.5393
ctor	-11.5395
etta	-11.5395
dom	-11.5397
▁ehrungen	-11.5398
▁norman	-11.5398
pag	-11.5398
erziehung	-11.5399
▁weicht	-11.54
▁etablieren	-11.5403
▁praktiziert	-11.5404
▁durchsetzung	-11.5405
sentwurf	-11.5405
technische	-11.5408
▁schmale	-11.5408
▁ausgang	-11.5408
studien	-11.5409
▁offensive	-11.5411
▁faul	-11.5414
▁defizite	-11.5415
lassen	-11.5418
▁vorgaben	-11.542
▁schwä	-11.5422
▁tötet	-11.5423
▁galli	-11.5424
▁unver	-11.5427
▁harmonisch	-11.5429
▁turin	-11.5431
▁zweit	-11.5431
▁springer	-11.5431
▁berger	-11.5432
▁abermal	-11.5433
▁holen	-11.5437
▁einfachste	-11.5437
▁leistungsfähig	-11.5438
▁hing	-11.5438
▁strich	-11.5441
uma	-11.5441
▁gelernte	-11.5442
▁wissens	-11.5446
▁jeff	-11.5446
▁schenken	-11.5448
▁beinamen	-11.545
gerichtshof	-11.5452
▁positives	-11.5453
▁cro	-11.5453
▁ziffern	-11.5453
▁kriminelle	-11.5455
▁belarus	-11.5456
▁verabschieden	-11.5458
▁renten	-11.5461
▁norddeutsche	-11.5463
presse	-11.5463
rückgang	-11.5464
ssysteme	-11.5466
▁parkanlage	-11.5466
bos	-11.5467
▁salon	-11.5468
▁lagerung	-11.5468
▁carlos	-11.5468
▁verschlechtert	-11.547
▁aufteilung	-11.5476
▁optimal	-11.5479
▁tanzen	-11.548
▁bahnen	-11.5483
▁werkstoff	-11.5483
ender	-11.5483
geber	-11.5485
▁erben	-11.5489
▁verliefen	-11.5489
▁religiös	-11.549
deutsche	-11.5492
sgrad	-11.5493
▁vortrag	-11.5493
▁selbstständige	-11.5496
▁rettung	-11.5496
▁inwie	-11.5497
▁trainings	-11.5497
anne	-11.5498
telfeldspieler	-11.5499
verlust	-11.5499
schwing	-11.5501
ite	-11.5502
▁cole	-11.5502
▁baut	-11.5504
aufgaben	-11.5509
urteil	-11.551
krankenschwester	-11.5511
▁scheiben	-11.5512
▁vordere	-11.5513
loh	-11.5513
▁fußballverband	-11.5517
sha	-11.5519
▁zusammenhänge	-11.5519
▁kirsch	-11.552
fähr	-11.552
▁reagierte	-11.5521
▁ewig	-11.5525
affe	-11.5526
▁böhm	-11.5526
▁geringere	-11.5527
tek	-11.5528
kürzung	-11.5529
▁kulturell	-11.5531
gegen	-11.5536
▁großzügige	-11.5538
▁rebsorte	-11.5538
isation	-11.5544
esch	-11.5546
▁bekamen	-11.5553
▁überregional	-11.5555
stad	-11.5557
▁asp	-11.5557
schauspielschule	-11.5557
ister	-11.5559
esse	-11.5564
abbau	-11.5565
▁erhalt	-11.5566
▁täglichen	-11.5569
wirt	-11.5569
▁schriftstelleri	-11.5573
▁medikamente	-11.5575
eigene	-11.5576
▁boxen	-11.5577
berater	-11.5577
▁berlegung	-11.5581
cast	-11.5581
▁gewisser	-11.5582
pumpe	-11.5585
kolleg	-11.5586
▁flu	-11.5591
gefühl	-11.5593
kritische	-11.5594
owski	-11.5594
▁sti	-11.5597
▁kreative	-11.5598
▁verfall	-11.5599
ander	-11.56
▁rassen	-11.5602
ffa	-11.5605
hell	-11.5606
erkennung	-11.5606
gliederung	-11.5606
amp	-11.5608
▁publikums	-11.5614
▁betriebssystem	-11.5614
▁entscheidungs	-11.5617
▁bungen	-11.562
bet	-11.5624
▁qualitativ	-11.5626
zonen	-11.5631
▁unbekannten	-11.5631
▁lauren	-11.5632
▁relief	-11.5633
viel	-11.5637
▁herein	-11.5639
eger	-11.564
▁unterzeichnet	-11.5646
speicher	-11.5649
möglich	-11.565
spricht	-11.5651
bleiben	-11.5652
▁rational	-11.5653
vorpommern	-11.5654
finanz	-11.5655
tempel	-11.5655
provinz	-11.5656
wörter	-11.5656
kompetenz	-11.5656
krankenhaus	-11.5657
lizenz	-11.5657
gewässer	-11.5657
ole	-11.5658
zähne	-11.5659
▁warte	-11.5659
▁flüchtete	-11.566
vorlage	-11.566
▁externen	-11.566
gift	-11.5661
bereit	-11.5662
▁quadrat	-11.5662
▁behinderte	-11.5663
▁jon	-11.5663
front	-11.5666
▁legislative	-11.5671
▁soziales	-11.5671
▁werten	-11.5671
▁moralische	-11.5673
▁steuerte	-11.568
▁analysen	-11.5683
▁area	-11.5685
▁belange	-11.5686
▁inhaltliche	-11.5687
▁lesungen	-11.5691
▁beliebige	-11.5695
alben	-11.5696
aki	-11.5699
▁kenne	-11.57
sachsen	-11.5704
▁kuh	-11.5709
▁wirksame	-11.5709
▁schaffens	-11.5709
▁romans	-11.5711
suchen	-11.5712
▁sul	-11.5712
▁nigeria	-11.5712
flieger	-11.5712
▁aneinander	-11.5714
lässlich	-11.5716
▁treib	-11.5716
▁japanisch	-11.572
transatlantische	-11.5721
▁argentinische	-11.5721
▁conference	-11.5721
▁empfinde	-11.5721
▁geschwächt	-11.5721
▁hawaii	-11.5721
▁highschool	-11.5721
▁klärung	-11.5721
▁louisiana	-11.5721
▁malaysia	-11.5721
▁nachvollziehbar	-11.5721
▁powiat	-11.5721
▁restaurierung	-11.5721
▁rotterdam	-11.5721
▁solothurn	-11.5721
▁teenager	-11.5721
▁umbenennung	-11.5721
▁verdeutlichen	-11.5721
▁versprochen	-11.5721
▁angegliedert	-11.5721
▁angeregt	-11.5721
▁beethoven	-11.5721
▁gekocht	-11.5721
▁gerechtfertigt	-11.5721
▁grössere	-11.5721
▁wegbereiter	-11.5721
▁ffnung	-11.5721
▁jersey	-11.5721
▁nelson	-11.5721
▁speyer	-11.5721
▁unerlässlich	-11.5721
▁verzweifelt	-11.5721
▁central	-11.5721
▁tugend	-11.5721
▁entstammen	-11.5721
▁freimaurerloge	-11.5721
▁fröhlich	-11.5721
▁abweichung	-11.5721
▁signatur	-11.5721
▁unsichtbar	-11.5721
▁hinreichend	-11.5721
▁bedacht	-11.5721
▁dolmetscher	-11.5721
▁unterbreitet	-11.5721
▁priesterseminar	-11.5721
▁rückenflosse	-11.5721
▁koordination	-11.5721
▁räumlichkeiten	-11.5721
▁alaska	-11.5721
▁ltd	-11.5721
▁todesursache	-11.5721
▁vokal	-11.5721
▁kehle	-11.5721
▁ursprünge	-11.5721
▁würfel	-11.5721
▁kennedy	-11.5721
▁zivilisation	-11.5721
▁sparsam	-11.5721
▁domkapitel	-11.5721
▁philologie	-11.5721
▁gordon	-11.5721
▁sinkt	-11.5722
▁übermittelt	-11.5722
▁brannte	-11.5722
▁martha	-11.5722
▁beidseitig	-11.5722
▁volkshochschule	-11.5722
▁profikarriere	-11.5722
▁finanzkrise	-11.5722
▁coast	-11.5722
▁schein	-11.5722
▁level	-11.5722
▁zweierlei	-11.5722
▁gleichung	-11.5723
▁jurastudium	-11.5723
▁ansässige	-11.5723
▁merken	-11.5723
▁zehntausend	-11.5723
▁zivilisten	-11.5723
▁rhod	-11.5723
tzsch	-11.5724
▁bedau	-11.5724
▁emmy	-11.5724
▁schulausbildung	-11.5724
▁frost	-11.5724
▁gezähnt	-11.5724
▁indiana	-11.5724
▁dance	-11.5725
▁statthalter	-11.5726
▁luftverkehr	-11.5727
▁abgetragen	-11.5727
linge	-11.5727
▁zelle	-11.5727
▁verteilen	-11.5728
▁lehm	-11.5728
▁rohstoffe	-11.5729
▁schwul	-11.5729
▁flusslauf	-11.5729
▁konzeption	-11.5729
▁hubert	-11.573
▁volkspartei	-11.573
freund	-11.573
▁jugendarbeit	-11.573
▁baustil	-11.5731
▁unterkunft	-11.5731
▁eberhard	-11.5731
▁bundesrat	-11.5732
▁business	-11.5732
▁aussterben	-11.5733
▁sven	-11.5734
▁cool	-11.5734
▁claude	-11.5734
▁amtssprache	-11.5734
▁hierarchie	-11.5735
▁liest	-11.5735
bat	-11.5736
▁mörder	-11.5737
▁bundesstraße	-11.5737
▁äußerte	-11.5738
▁studienzeit	-11.5739
▁vincen	-11.5739
▁transit	-11.574
gebrannt	-11.574
▁hirn	-11.5741
▁strukturelle	-11.5741
▁mundart	-11.5742
▁passau	-11.5742
▁zuflüsse	-11.5743
▁baumwolle	-11.5743
▁lebend	-11.5743
▁schiffes	-11.5743
▁hospital	-11.5744
schub	-11.5745
koch	-11.5747
▁gräben	-11.5747
▁zusatzfrage	-11.5747
▁untersteht	-11.5747
▁stadtrand	-11.5748
▁slowenische	-11.5748
▁steg	-11.5748
▁haftung	-11.5749
▁einsätzen	-11.5752
dingen	-11.5753
▁kinos	-11.5753
▁toleranz	-11.5754
▁kanu	-11.5755
▁tabu	-11.5755
wettbewerben	-11.5755
▁tab	-11.5757
▁südlichste	-11.5758
▁talsperre	-11.5758
▁breites	-11.5759
▁zügen	-11.5761
▁herzustellen	-11.5762
▁eb	-11.5762
▁stell	-11.5763
▁importiert	-11.5765
hem	-11.5766
▁hack	-11.5766
▁kil	-11.5766
▁privater	-11.5767
ahn	-11.5769
▁bundespräsident	-11.5773
org	-11.5773
assi	-11.5774
▁streu	-11.5775
▁marathon	-11.5778
ströme	-11.5779
▁hemm	-11.578
▁veranstaltungs	-11.5781
▁aff	-11.5781
▁untertitel	-11.5783
▁gesellschafter	-11.5783
▁zusammenhalt	-11.5784
▁problemlos	-11.5787
▁gegründete	-11.5787
▁repräsentanten	-11.5792
▁alltags	-11.5795
▁fakultäten	-11.5796
dale	-11.5797
▁integrierte	-11.5798
▁magnetische	-11.5798
▁colon	-11.58
▁gewähren	-11.5801
▁spruch	-11.5801
▁moderierte	-11.5803
▁einkauf	-11.5805
aja	-11.5807
▁thun	-11.5814
▁kub	-11.5814
▁abzug	-11.5815
lagern	-11.5822
▁englands	-11.5824
uth	-11.5824
▁kok	-11.5825
▁sack	-11.5825
illon	-11.5829
▁funktionierende	-11.5829
▁schrecken	-11.5831
▁wilden	-11.5834
▁industrielle	-11.5836
▁grö	-11.5839
gebaut	-11.5841
▁behindert	-11.5842
▁ermittlungen	-11.5843
▁wora	-11.5849
hel	-11.5849
▁besetzte	-11.5857
unt	-11.586
▁interviews	-11.5861
▁instrumental	-11.5862
▁begleit	-11.5867
▁ausweit	-11.5867
▁wanderweg	-11.5867
▁alp	-11.587
▁verstoß	-11.5872
▁bauform	-11.5875
▁grosse	-11.5878
▁schade	-11.588
▁hofft	-11.5884
▁hain	-11.5885
▁grant	-11.5888
▁stehend	-11.5889
▁richt	-11.589
▁ida	-11.589
▁erstrecken	-11.589
▁begrenzte	-11.5892
▁parlamente	-11.5893
▁zahlreich	-11.5894
fassungsgericht	-11.5894
öhr	-11.5904
▁miet	-11.5907
▁einflussreiche	-11.5908
freunde	-11.5909
aufführungen	-11.591
▁mes	-11.591
▁spielfilm	-11.5913
▁by	-11.5916
▁gleicht	-11.5925
▁kritikern	-11.5925
tlich	-11.5926
▁familienname	-11.5927
▁spitzname	-11.5927
▁schreiber	-11.5928
▁taub	-11.5928
▁nachweisbar	-11.5931
hängen	-11.5932
tafeln	-11.5933
▁genutzte	-11.5933
dig	-11.5934
▁polens	-11.5938
▁brau	-11.5938
▁mario	-11.5938
▁eil	-11.594
▁zwittrig	-11.5944
▁flo	-11.5948
▁brechen	-11.5949
ous	-11.5953
tti	-11.5953
▁illustrierte	-11.5953
bis	-11.5954
▁premier	-11.5956
ländern	-11.5956
▁satellit	-11.5957
bestimmung	-11.5957
▁kontinuierliche	-11.5959
▁kopie	-11.596
▁grube	-11.5961
▁tsch	-11.5962
▁scher	-11.5962
▁türmen	-11.5962
gearbeitet	-11.5963
▁komponente	-11.5964
gefahren	-11.5967
gefallen	-11.5967
▁irgendeine	-11.597
▁drucker	-11.5973
▁patient	-11.5976
▁branchen	-11.5983
▁medizinisch	-11.5987
sprech	-11.5987
pot	-11.5987
svorsitzenden	-11.5989
verständnis	-11.599
▁vulkanische	-11.5992
besitz	-11.5994
▁pub	-11.5994
▁feine	-11.5997
▁detailliert	-11.5998
▁aufstellung	-11.5998
▁lücken	-11.5998
▁uran	-11.5998
▁vertrages	-11.6001
anteil	-11.6001
▁abbildung	-11.6003
▁produzierten	-11.6004
▁press	-11.6006
▁metern	-11.6006
▁getriebe	-11.6007
▁markgraf	-11.6008
hebt	-11.6008
[...]
